{
  "version": "1.0",
  "truncation": null,
  "padding": null,
  "added_tokens": [
    {
      "id": 0,
      "content": "<PAD>",
      "single_word": false,
      "lstrip": false,
      "rstrip": false,
      "normalized": false,
      "special": true
    },
    {
      "id": 1,
      "content": "<UNK>",
      "single_word": false,
      "lstrip": false,
      "rstrip": false,
      "normalized": false,
      "special": true
    },
    {
      "id": 2,
      "content": "<CLS>",
      "single_word": false,
      "lstrip": false,
      "rstrip": false,
      "normalized": false,
      "special": true
    },
    {
      "id": 3,
      "content": "<SEP>",
      "single_word": false,
      "lstrip": false,
      "rstrip": false,
      "normalized": false,
      "special": true
    },
    {
      "id": 4,
      "content": "<MASK>",
      "single_word": false,
      "lstrip": false,
      "rstrip": false,
      "normalized": false,
      "special": true
    }
  ],
  "normalizer": null,
  "pre_tokenizer": {
    "type": "ByteLevel",
    "add_prefix_space": true,
    "trim_offsets": true,
    "use_regex": true
  },
  "post_processor": null,
  "decoder": {
    "type": "ByteLevel",
    "add_prefix_space": true,
    "trim_offsets": true,
    "use_regex": true
  },
  "model": {
    "type": "BPE",
    "dropout": null,
    "unk_token": "<UNK>",
    "continuing_subword_prefix": null,
    "end_of_word_suffix": null,
    "fuse_unk": false,
    "byte_fallback": false,
    "ignore_merges": false,
    "vocab": {
      "<PAD>": 0,
      "<UNK>": 1,
      "<CLS>": 2,
      "<SEP>": 3,
      "<MASK>": 4,
      "!": 5,
      "\"": 6,
      "#": 7,
      "$": 8,
      "%": 9,
      "&": 10,
      "'": 11,
      "(": 12,
      ")": 13,
      "*": 14,
      "+": 15,
      ",": 16,
      "-": 17,
      ".": 18,
      "/": 19,
      "0": 20,
      "1": 21,
      "2": 22,
      "3": 23,
      "4": 24,
      "5": 25,
      "6": 26,
      "7": 27,
      "8": 28,
      "9": 29,
      ":": 30,
      ";": 31,
      "<": 32,
      "=": 33,
      ">": 34,
      "?": 35,
      "@": 36,
      "A": 37,
      "B": 38,
      "C": 39,
      "D": 40,
      "E": 41,
      "F": 42,
      "G": 43,
      "H": 44,
      "I": 45,
      "J": 46,
      "K": 47,
      "L": 48,
      "M": 49,
      "N": 50,
      "O": 51,
      "P": 52,
      "Q": 53,
      "R": 54,
      "S": 55,
      "T": 56,
      "U": 57,
      "V": 58,
      "W": 59,
      "X": 60,
      "Y": 61,
      "Z": 62,
      "[": 63,
      "\\": 64,
      "]": 65,
      "^": 66,
      "_": 67,
      "`": 68,
      "a": 69,
      "b": 70,
      "c": 71,
      "d": 72,
      "e": 73,
      "f": 74,
      "g": 75,
      "h": 76,
      "i": 77,
      "j": 78,
      "k": 79,
      "l": 80,
      "m": 81,
      "n": 82,
      "o": 83,
      "p": 84,
      "q": 85,
      "r": 86,
      "s": 87,
      "t": 88,
      "u": 89,
      "v": 90,
      "w": 91,
      "x": 92,
      "y": 93,
      "z": 94,
      "{": 95,
      "|": 96,
      "}": 97,
      "~": 98,
      "¡": 99,
      "¢": 100,
      "£": 101,
      "¤": 102,
      "¥": 103,
      "¦": 104,
      "§": 105,
      "¨": 106,
      "©": 107,
      "ª": 108,
      "«": 109,
      "¬": 110,
      "®": 111,
      "¯": 112,
      "°": 113,
      "±": 114,
      "²": 115,
      "³": 116,
      "´": 117,
      "µ": 118,
      "¶": 119,
      "·": 120,
      "¸": 121,
      "¹": 122,
      "º": 123,
      "»": 124,
      "¼": 125,
      "½": 126,
      "¾": 127,
      "¿": 128,
      "Â": 129,
      "Ã": 130,
      "Ä": 131,
      "Å": 132,
      "Æ": 133,
      "Ç": 134,
      "È": 135,
      "É": 136,
      "Ê": 137,
      "Ë": 138,
      "Ì": 139,
      "Í": 140,
      "Î": 141,
      "Ï": 142,
      "Ð": 143,
      "Ñ": 144,
      "Ò": 145,
      "Ó": 146,
      "Ô": 147,
      "Õ": 148,
      "Ö": 149,
      "×": 150,
      "Ø": 151,
      "Ù": 152,
      "Ú": 153,
      "Û": 154,
      "Ü": 155,
      "Þ": 156,
      "ß": 157,
      "à": 158,
      "á": 159,
      "â": 160,
      "ã": 161,
      "ä": 162,
      "å": 163,
      "æ": 164,
      "ç": 165,
      "è": 166,
      "é": 167,
      "ê": 168,
      "ë": 169,
      "ì": 170,
      "í": 171,
      "ï": 172,
      "ð": 173,
      "ĉ": 174,
      "Ġ": 175,
      "Ģ": 176,
      "ģ": 177,
      "Ĥ": 178,
      "ĥ": 179,
      "Ħ": 180,
      "ħ": 181,
      "Ĩ": 182,
      "ĩ": 183,
      "Ī": 184,
      "ī": 185,
      "Ĭ": 186,
      "ĭ": 187,
      "Į": 188,
      "į": 189,
      "İ": 190,
      "ı": 191,
      "Ĳ": 192,
      "ĳ": 193,
      "Ĵ": 194,
      "ĵ": 195,
      "Ķ": 196,
      "ķ": 197,
      "ĸ": 198,
      "Ĺ": 199,
      "ĺ": 200,
      "Ļ": 201,
      "ļ": 202,
      "Ľ": 203,
      "ľ": 204,
      "Ŀ": 205,
      "ŀ": 206,
      "Ł": 207,
      "ł": 208,
      "Ń": 209,
      "Ġt": 210,
      "Ġa": 211,
      "he": 212,
      "in": 213,
      "er": 214,
      "on": 215,
      "Ġthe": 216,
      "re": 217,
      "Ġo": 218,
      "at": 219,
      "an": 220,
      "en": 221,
      "Ġs": 222,
      "ed": 223,
      "is": 224,
      "Ġc": 225,
      "or": 226,
      "es": 227,
      "it": 228,
      "al": 229,
      "Ġof": 230,
      "Ġw": 231,
      "Ġan": 232,
      "ar": 233,
      "Ġin": 234,
      "Ġf": 235,
      "Ġb": 236,
      "ic": 237,
      "Ġp": 238,
      "Ġand": 239,
      "ion": 240,
      "ing": 241,
      "ro": 242,
      "as": 243,
      "Ġm": 244,
      "Ġd": 245,
      "Ġto": 246,
      "le": 247,
      "ĠA": 248,
      "ent": 249,
      "Ġh": 250,
      "ou": 251,
      "ĠT": 252,
      "om": 253,
      "ĠC": 254,
      "st": 255,
      "ct": 256,
      "Ġre": 257,
      "il": 258,
      "Ġe": 259,
      "el": 260,
      "ĠS": 261,
      "Ġ1": 262,
      "ol": 263,
      "Ġl": 264,
      "Ġth": 265,
      "Ġn": 266,
      "Ġ(": 267,
      "am": 268,
      "us": 269,
      "ation": 270,
      "et": 271,
      "ly": 272,
      "ĠB": 273,
      "ur": 274,
      "ch": 275,
      "iv": 276,
      "ĠI": 277,
      "ad": 278,
      "ce": 279,
      "im": 280,
      "ĠThe": 281,
      "id": 282,
      "Ġis": 283,
      "ĠM": 284,
      "un": 285,
      "ig": 286,
      "ut": 287,
      "ot": 288,
      "Ġg": 289,
      "Ġfor": 290,
      "Ġas": 291,
      "Ġbe": 292,
      "ir": 293,
      "ĠP": 294,
      "ers": 295,
      "Ġon": 296,
      "ist": 297,
      "ul": 298,
      "ĠE": 299,
      "ow": 300,
      "ra": 301,
      "ith": 302,
      "ĠF": 303,
      "Ġwas": 304,
      "ĠD": 305,
      "em": 306,
      "Ġst": 307,
      "ĠG": 308,
      "Ġ19": 309,
      "her": 310,
      "Ġcon": 311,
      "ter": 312,
      "ĠH": 313,
      "os": 314,
      "Ġwith": 315,
      "ĠR": 316,
      "Ġby": 317,
      "ay": 318,
      "ver": 319,
      "Ġthat": 320,
      "th": 321,
      "Ġal": 322,
      "um": 323,
      "and": 324,
      "Ġwh": 325,
      "ĠL": 326,
      "Ġpro": 327,
      "Ġ2": 328,
      "op": 329,
      "od": 330,
      "ag": 331,
      "'s": 332,
      "âĢ": 333,
      "ĠW": 334,
      "ri": 335,
      "Ġor": 336,
      "av": 337,
      "Ġde": 338,
      "ĠIn": 339,
      "Ġcom": 340,
      "est": 341,
      "if": 342,
      "ĠN": 343,
      "Ġ\"": 344,
      "rom": 345,
      "Ġv": 346,
      "res": 347,
      "ac": 348,
      "ian": 349,
      "Ġare": 350,
      "ain": 351,
      "Ġit": 352,
      "ies": 353,
      "ity": 354,
      "Ġsu": 355,
      "ab": 356,
      "pe": 357,
      "Ġex": 358,
      "âĢĵ": 359,
      "Ġat": 360,
      "Ġfrom": 361,
      "ate": 362,
      "oun": 363,
      "00": 364,
      "ĠJ": 365,
      "qu": 366,
      "oc": 367,
      "ud": 368,
      "ich": 369,
      "ĠO": 370,
      "ant": 371,
      "ical": 372,
      "Ġhe": 373,
      "ess": 374,
      "ort": 375,
      "ore": 376,
      "ld": 377,
      "Ġse": 378,
      "Ġr": 379,
      "art": 380,
      "ial": 381,
      "se": 382,
      "ive": 383,
      "ment": 384,
      "ill": 385,
      "all": 386,
      "ĠU": 387,
      "og": 388,
      "pp": 389,
      "ia": 390,
      "igh": 391,
      "pt": 392,
      "Ġun": 393,
      "ard": 394,
      "ew": 395,
      "ated": 396,
      "Ġus": 397,
      "ction": 398,
      "Ġhis": 399,
      "ber": 400,
      "Ġwhich": 401,
      "Ġch": 402,
      "ish": 403,
      "ure": 404,
      "ak": 405,
      "ere": 406,
      "end": 407,
      "ther": 408,
      "ine": 409,
      "ary": 410,
      "ost": 411,
      "gh": 412,
      "ge": 413,
      "ĠCh": 414,
      "per": 415,
      "cl": 416,
      "ell": 417,
      "ĠK": 418,
      "Ġnot": 419,
      "Ġwere": 420,
      "ip": 421,
      "Ġcomp": 422,
      "ast": 423,
      "ran": 424,
      "ave": 425,
      "Ġpl": 426,
      "mer": 427,
      "du": 428,
      "ov": 429,
      "ĠâĢĵ": 430,
      "Ġle": 431,
      "our": 432,
      "ord": 433,
      "ong": 434,
      "rit": 435,
      "ect": 436,
      "ition": 437,
      "ame": 438,
      "ous": 439,
      "ub": 440,
      "),": 441,
      "ire": 442,
      "ĠSt": 443,
      "up": 444,
      "so": 445,
      "iz": 446,
      "cc": 447,
      "ight": 448,
      "Ġ20": 449,
      "ome": 450,
      "Ġk": 451,
      "ear": 452,
      "ap": 453,
      "Ġcont": 454,
      "Ġsh": 455,
      "ff": 456,
      "ations": 457,
      "ry": 458,
      "Ġar": 459,
      "ence": 460,
      "Ġhave": 461,
      "Ġint": 462,
      "ult": 463,
      "der": 464,
      "ru": 465,
      "ass": 466,
      "ign": 467,
      "ib": 468,
      "erm": 469,
      "fer": 470,
      "Ġalso": 471,
      "pl": 472,
      "ide": 473,
      "Ġhas": 474,
      "age": 475,
      "Ġad": 476,
      "ĠV": 477,
      "ks": 478,
      "ie": 479,
      "ust": 480,
      "Ġcl": 481,
      "ally": 482,
      "Ġy": 483,
      "ĠTh": 484,
      "ren": 485,
      "ican": 486,
      "Ġhad": 487,
      "Ġits": 488,
      "ph": 489,
      "Ġwhe": 490,
      "ĠUn": 491,
      "act": 492,
      "ang": 493,
      "Ġres": 494,
      "tern": 495,
      "Ġtheir": 496,
      "ory": 497,
      "Ġab": 498,
      "Ġwor": 499,
      ").": 500,
      "irst": 501,
      "Ġpart": 502,
      "Ġother": 503,
      "ue": 504,
      "Ġbut": 505,
      "Ġen": 506,
      "19": 507,
      "ĠAn": 508,
      "Ġall": 509,
      "ates": 510,
      "Ġcan": 511,
      "ree": 512,
      "ater": 513,
      "ount": 514,
      "ces": 515,
      "Ġim": 516,
      "ould": 517,
      "Ġdis": 518,
      "any": 519,
      "clud": 520,
      "red": 521,
      "Ġthis": 522,
      "Ġ18": 523,
      "orm": 524,
      "ĠĠ": 525,
      "con": 526,
      "ely": 527,
      "ĠAl": 528,
      "Ġ200": 529,
      "ime": 530,
      "ions": 531,
      "own": 532,
      "Ġfirst": 533,
      "Ġone": 534,
      "ress": 535,
      "over": 536,
      "out": 537,
      "ens": 538,
      "ach": 539,
      "land": 540,
      "ack": 541,
      "able": 542,
      "ĠRe": 543,
      "ice": 544,
      "ĠAmer": 545,
      "Ġbeen": 546,
      "wo": 547,
      "ĠIt": 548,
      "ile": 549,
      "Ġper": 550,
      "Ġ201": 551,
      "erv": 552,
      "Ġinclud": 553,
      "und": 554,
      "port": 555,
      "hed": 556,
      "te": 557,
      "Ġte": 558,
      "ke": 559,
      "vel": 560,
      "Ġbec": 561,
      "Ġsy": 562,
      "ational": 563,
      "ound": 564,
      "ace": 565,
      "ric": 566,
      "ors": 567,
      "olog": 568,
      "fter": 569,
      "ced": 570,
      "Ġro": 571,
      "oll": 572,
      "ugh": 573,
      "Ġcomm": 574,
      "Ġsuch": 575,
      "ubl": 576,
      "ents": 577,
      "ĠEn": 578,
      "ance": 579,
      "Ġdes": 580,
      "ism": 581,
      "ron": 582,
      "ok": 583,
      "Ġwho": 584,
      "ase": 585,
      "ose": 586,
      "ited": 587,
      "Ġsc": 588,
      "Ġne": 589,
      "Ġused": 590,
      "we": 591,
      "Ġform": 592,
      "Ġsp": 593,
      "les": 594,
      "Ġspe": 595,
      "Ġev": 596,
      "ts": 597,
      "ough": 598,
      "Ġag": 599,
      "uring": 600,
      "Ġmore": 601,
      "Ġele": 602,
      "Ġj": 603,
      "ĠAr": 604,
      "Ġcons": 605,
      "ite": 606,
      "ĠAmerican": 607,
      "Ġyear": 608,
      "Ġtwo": 609,
      "ĠHe": 610,
      "ied": 611,
      "Ġrec": 612,
      "aw": 613,
      "amp": 614,
      "Ġmost": 615,
      "ular": 616,
      "ics": 617,
      "ade": 618,
      "Ġcent": 619,
      "Ġinto": 620,
      "ath": 621,
      "Ġthey": 622,
      "Ġ3": 623,
      "Ġme": 624,
      "Ġrel": 625,
      "reat": 626,
      "Ġgen": 627,
      "oin": 628,
      "ne": 629,
      "aus": 630,
      "Ġpre": 631,
      "ans": 632,
      "Ġgro": 633,
      "Ġbet": 634,
      "Ġprodu": 635,
      "old": 636,
      "Ġ199": 637,
      "rib": 638,
      "form": 639,
      "rans": 640,
      "ep": 641,
      "Âł": 642,
      "Ġover": 643,
      "ob": 644,
      "Ġthan": 645,
      "Ġplay": 646,
      "are": 647,
      "ual": 648,
      "stem": 649,
      "ons": 650,
      "ased": 651,
      "ark": 652,
      "Ġapp": 653,
      "ury": 654,
      "one": 655,
      "ft": 656,
      "ood": 657,
      "ĠCom": 658,
      "Ġreg": 659,
      "Ġnum": 660,
      "ious": 661,
      "ĠThis": 662,
      "Ġout": 663,
      "ings": 664,
      "iss": 665,
      "Ġpol": 666,
      "ted": 667,
      "Ġact": 668,
      "ys": 669,
      "Ġpr": 670,
      "ĠAs": 671,
      "Ġsub": 672,
      "Ġph": 673,
      "rough": 674,
      "Ġsome": 675,
      "oth": 676,
      "ween": 677,
      "wn": 678,
      "ĠY": 679,
      "ific": 680,
      "Ġkn": 681,
      "ĠSe": 682,
      "Ġafter": 683,
      "Ġatt": 684,
      "ail": 685,
      "ivers": 686,
      "Ġonly": 687,
      "Ġtime": 688,
      "ative": 689,
      "ten": 690,
      "orn": 691,
      "ram": 692,
      "gan": 693,
      "ĠDe": 694,
      "ĠEng": 695,
      "ind": 696,
      "the": 697,
      "Ġacc": 698,
      "Ġac": 699,
      "Ġbetween": 700,
      "Ġunder": 701,
      "ilm": 702,
      "Ġ198": 703,
      "li": 704,
      "uc": 705,
      "Ġinter": 706,
      "Ġear": 707,
      "Ġwould": 708,
      "Ġam": 709,
      "Ġso": 710,
      "Ġmod": 711,
      "ict": 712,
      "Ġnew": 713,
      "Ġmay": 714,
      "als": 715,
      "ond": 716,
      "cre": 717,
      "Ġsystem": 718,
      "Ġpe": 719,
      "Ġup": 720,
      "Ġra": 721,
      "Ġlar": 722,
      "ral": 723,
      "Ġtrans": 724,
      "uro": 725,
      "Ġfl": 726,
      "ars": 727,
      "\".": 728,
      "ild": 729,
      "ution": 730,
      "ject": 731,
      "ern": 732,
      "ists": 733,
      "Ġqu": 734,
      "Ġwhen": 735,
      "Ġ197": 736,
      "Ġind": 737,
      "Ġdif": 738,
      "overn": 739,
      "ug": 740,
      "ities": 741,
      "Ġthere": 742,
      "iet": 743,
      "Ġdef": 744,
      "oy": 745,
      "Ġoff": 746,
      "rad": 747,
      "ident": 748,
      "io": 749,
      "Ġcol": 750,
      "Ġ4": 751,
      "ve": 752,
      "Ġmany": 753,
      "ince": 754,
      "Ġass": 755,
      "urn": 756,
      "ĠCon": 757,
      "ward": 758,
      "Ġwe": 759,
      "ines": 760,
      "cial": 761,
      "ower": 762,
      "eral": 763,
      "Ġuse": 764,
      "Ġpop": 765,
      "ating": 766,
      "velop": 767,
      "Ġcount": 768,
      "Ġco": 769,
      "lish": 770,
      "Ġem": 771,
      "Ġthem": 772,
      "Ġpubl": 773,
      "ople": 774,
      "Ġwork": 775,
      "ished": 776,
      "ĠNew": 777,
      "Ġcall": 778,
      "Ġpos": 779,
      "oh": 780,
      "ever": 781,
      "Ġdo": 782,
      "\",": 783,
      "Ġpres": 784,
      "ann": 785,
      "ix": 786,
      "Ġthrough": 787,
      "Ġfilm": 788,
      "hes": 789,
      "Ġwhere": 790,
      "ake": 791,
      "Ġ196": 792,
      "cept": 793,
      "ollow": 794,
      "Ġinv": 795,
      "Ġmet": 796,
      "Ġyears": 797,
      "Ġduring": 798,
      "Ġrem": 799,
      "Ġset": 800,
      "Ġhim": 801,
      "ient": 802,
      "Ġabout": 803,
      "Ġob": 804,
      "20": 805,
      "ĠGerm": 806,
      "Ġ5": 807,
      "inal": 808,
      "Ġbo": 809,
      "ĠLe": 810,
      "ures": 811,
      "cess": 812,
      "ĠUnited": 813,
      "rist": 814,
      "hip": 815,
      "angu": 816,
      "ĠMar": 817,
      "Ġprov": 818,
      "Ġman": 819,
      "Ġknown": 820,
      "very": 821,
      "Ġinst": 822,
      "Ġbl": 823,
      "Ġvar": 824,
      "ered": 825,
      "ays": 826,
      "Ġsupp": 827,
      "ctions": 828,
      "Ġdevelop": 829,
      "Ġmem": 830,
      "ĠEuro": 831,
      "Ġno": 832,
      "ĠFor": 833,
      "Ġwrit": 834,
      "ily": 835,
      "ert": 836,
      "ically": 837,
      "cy": 838,
      "ins": 839,
      "Ġfound": 840,
      "Ġchar": 841,
      "ale": 842,
      "cted": 843,
      "hen": 844,
      "Ġtra": 845,
      "ized": 846,
      "ise": 847,
      "ause": 848,
      "Ġthese": 849,
      "owever": 850,
      "Ġdist": 851,
      "Ġinf": 852,
      "iel": 853,
      "ah": 854,
      "aj": 855,
      ".\"": 856,
      "Ġli": 857,
      "ton": 858,
      "cent": 859,
      "ement": 860,
      "ually": 861,
      "ium": 862,
      "Ġaut": 863,
      "fore": 864,
      "ĠBrit": 865,
      "Ġher": 866,
      "ology": 867,
      "ible": 868,
      "Ġnumber": 869,
      "Ġexp": 870,
      "Ġgovern": 871,
      "ature": 872,
      "hem": 873,
      "att": 874,
      "ments": 875,
      "Ġdiffer": 876,
      "Ġserv": 877,
      "ife": 878,
      "Ġest": 879,
      "ck": 880,
      "outh": 881,
      "its": 882,
      "Ġadd": 883,
      "ĠFran": 884,
      "ĠOn": 885,
      "Ġend": 886,
      "Ġfollow": 887,
      "uch": 888,
      "ural": 889,
      "Ġap": 890,
      "cond": 891,
      "Ġgroup": 892,
      "Ġrep": 893,
      "Ġext": 894,
      "ĠSp": 895,
      "Ġeff": 896,
      "Ġimp": 897,
      "Ġent": 898,
      "led": 899,
      "ĠEurope": 900,
      "round": 901,
      "Ġany": 902,
      "ĠPro": 903,
      "Ġcalled": 904,
      "ames": 905,
      "yp": 906,
      "Ġmade": 907,
      "Ġstud": 908,
      "ision": 909,
      "Ġbeing": 910,
      "raph": 911,
      "Ġcar": 912,
      "Ġ17": 913,
      "ĠChrist": 914,
      "ick": 915,
      "ork": 916,
      "Ġwell": 917,
      "Ġloc": 918,
      "Ġagain": 919,
      "Ġsur": 920,
      "000": 921,
      "ĠEnglish": 922,
      "Ġ194": 923,
      "Ġhist": 924,
      "bers": 925,
      "Ġsign": 926,
      "ather": 927,
      "Ġed": 928,
      "Ġsim": 929,
      "ax": 930,
      "Ġlangu": 931,
      "Ġincluding": 932,
      "uss": 933,
      "ences": 934,
      "Ġthen": 935,
      "ĠIs": 936,
      "Ġboth": 937,
      "Ġfe": 938,
      "Ġ6": 939,
      "Ġdire": 940,
      "Ġpeople": 941,
      "man": 942,
      "18": 943,
      "ages": 944,
      "Ġlater": 945,
      "Ġcentury": 946,
      "Ġwhile": 947,
      "ians": 948,
      "ility": 949,
      "Ã©": 950,
      "Ġthree": 951,
      "Ġmain": 952,
      "ved": 953,
      "imes": 954,
      "ros": 955,
      "Ġret": 956,
      "Ġmov": 957,
      "Ġterm": 958,
      "az": 959,
      "Ġ195": 960,
      "other": 961,
      "elf": 962,
      "Ġspec": 963,
      "orth": 964,
      "Ġbel": 965,
      "ock": 966,
      "Ġmus": 967,
      "ĠSc": 968,
      "ract": 969,
      "Ġart": 970,
      "Ġpolit": 971,
      "Ġhigh": 972,
      "ĠStates": 973,
      "Ġbu": 974,
      "ield": 975,
      "ex": 976,
      "Ġworld": 977,
      "Ġconst": 978,
      "air": 979,
      "rol": 980,
      "ues": 981,
      "Ġmon": 982,
      "Ġcre": 983,
      "ĠWar": 984,
      "ived": 985,
      "Ġorig": 986,
      "gest": 987,
      "ool": 988,
      "Ġbecame": 989,
      "ĠAt": 990,
      "Ġdec": 991,
      "ĠEx": 992,
      "ier": 993,
      "Ġsm": 994,
      "iversity": 995,
      "Ġpartic": 996,
      "Ġdep": 997,
      "Ġearly": 998,
      "ulation": 999,
      "ble": 1000,
      "ĠCol": 1001,
      "urch": 1002,
      "els": 1003,
      "lex": 1004,
      "Ġresult": 1005,
      "iew": 1006,
      "ajor": 1007,
      "ĠJoh": 1008,
      "inist": 1009,
      "erson": 1010,
      "ample": 1011,
      "inn": 1012,
      "ĠWor": 1013,
      "Ġ7": 1014,
      "ger": 1015,
      "Ġoper": 1016,
      "Ġoften": 1017,
      "ful": 1018,
      "Ġser": 1019,
      "rench": 1020,
      "Ġcity": 1021,
      "ĠInd": 1022,
      "ĠSh": 1023,
      "ĠZ": 1024,
      "ined": 1025,
      "ives": 1026,
      "ants": 1027,
      "gy": 1028,
      "oman": 1029,
      "vent": 1030,
      "Ġequ": 1031,
      "Ġsing": 1032,
      "ĠBe": 1033,
      "Ġsame": 1034,
      "Ġcontin": 1035,
      "ĠCl": 1036,
      "Ġelect": 1037,
      "Ġsever": 1038,
      "Ġ.": 1039,
      "Ġlead": 1040,
      "ange": 1041,
      "Ġ15": 1042,
      "omet": 1043,
      "oint": 1044,
      "ty": 1045,
      "ained": 1046,
      "ĠAd": 1047,
      "Ġlong": 1048,
      "Ġdesc": 1049,
      "yn": 1050,
      "Ġappe": 1051,
      "Ġair": 1052,
      "apt": 1053,
      "osed": 1054,
      "arch": 1055,
      "atic": 1056,
      "Ġdisc": 1057,
      "âĢĶ": 1058,
      "Ġsecond": 1059,
      "Ġ16": 1060,
      "Ġcommon": 1061,
      "Ġfun": 1062,
      "ĠFrench": 1063,
      "ember": 1064,
      "ĠComm": 1065,
      "rop": 1066,
      "Ġexample": 1067,
      "Ġdesign": 1068,
      "ene": 1069,
      "ball": 1070,
      "oot": 1071,
      "ĠCan": 1072,
      "ĠWorld": 1073,
      "iod": 1074,
      "Ġconsid": 1075,
      "ĠBritish": 1076,
      "ional": 1077,
      "ina": 1078,
      "Ġwill": 1079,
      "Ġeach": 1080,
      "Ġfam": 1081,
      "Ġprog": 1082,
      "Ġocc": 1083,
      "ĠJohn": 1084,
      "Ġown": 1085,
      "ĠAf": 1086,
      "illion": 1087,
      "Ġif": 1088,
      "chn": 1089,
      "conom": 1090,
      "Ġdifferent": 1091,
      "ared": 1092,
      "hor": 1093,
      "Ġgovernment": 1094,
      "ute": 1095,
      "though": 1096,
      "ĠEm": 1097,
      "Ġstate": 1098,
      "ĠGerman": 1099,
      "Ġsch": 1100,
      "Ġ8": 1101,
      "Ġ193": 1102,
      "ording": 1103,
      "ital": 1104,
      "ĠPh": 1105,
      "ting": 1106,
      "ired": 1107,
      "Ġcould": 1108,
      "ank": 1109,
      "til": 1110,
      "Ġcharact": 1111,
      "ruct": 1112,
      "Ġincre": 1113,
      "Ġsupport": 1114,
      "Ġmajor": 1115,
      "ilit": 1116,
      "Ġlaw": 1117,
      "lu": 1118,
      "aking": 1119,
      "Ġwar": 1120,
      "rent": 1121,
      "ĠOr": 1122,
      "Ġagainst": 1123,
      "Ġfour": 1124,
      "Ġ,": 1125,
      "Ġsince": 1126,
      "ĠWh": 1127,
      "Ġmed": 1128,
      "ason": 1129,
      "Ġsmall": 1130,
      "ĠAm": 1131,
      "iver": 1132,
      "ash": 1133,
      "to": 1134,
      "Ġclass": 1135,
      "ains": 1136,
      "Ġname": 1137,
      "ograph": 1138,
      "ively": 1139,
      "ĠAust": 1140,
      "ius": 1141,
      "ĠCar": 1142,
      "ica": 1143,
      "Ġseveral": 1144,
      "Ġdet": 1145,
      "Ġbecause": 1146,
      "Ġhum": 1147,
      "ris": 1148,
      "ries": 1149,
      "Ġmat": 1150,
      "Ġstr": 1151,
      "ience": 1152,
      "Ġsl": 1153,
      "Ġbefore": 1154,
      "ccess": 1155,
      "yl": 1156,
      "ley": 1157,
      "way": 1158,
      "lect": 1159,
      "Ġgener": 1160,
      "Ġeffect": 1161,
      "ĠHowever": 1162,
      "ven": 1163,
      "aid": 1164,
      "ternational": 1165,
      "Ġpublic": 1166,
      "ĠAp": 1167,
      "itions": 1168,
      "Ġbro": 1169,
      "ĠBl": 1170,
      "pect": 1171,
      "ĠUniversity": 1172,
      "com": 1173,
      "ĠThere": 1174,
      "Ġtrad": 1175,
      "ified": 1176,
      "Ġsoc": 1177,
      "Ġcur": 1178,
      "ox": 1179,
      "Ġinclude": 1180,
      "ouse": 1181,
      "Ġ10": 1182,
      "Ġrequ": 1183,
      "Ġrefer": 1184,
      "ik": 1185,
      "olution": 1186,
      "enn": 1187,
      "ued": 1188,
      "Ġdirect": 1189,
      "ged": 1190,
      "Ġorgan": 1191,
      "Ġpower": 1192,
      "ases": 1193,
      "ides": 1194,
      "ided": 1195,
      "oph": 1196,
      "ets": 1197,
      "ator": 1198,
      "ices": 1199,
      "Ġshow": 1200,
      "eg": 1201,
      "Ġ9": 1202,
      "Ġrele": 1203,
      "Ġuntil": 1204,
      "ole": 1205,
      "ised": 1206,
      "Ġprocess": 1207,
      "resent": 1208,
      "vers": 1209,
      "my": 1210,
      "ization": 1211,
      "Ġcor": 1212,
      "Ġval": 1213,
      "Ġref": 1214,
      "ĠII": 1215,
      "Ġlarge": 1216,
      "Ġins": 1217,
      "Ġallow": 1218,
      "Ġcap": 1219,
      "ĠGu": 1220,
      "oci": 1221,
      "rodu": 1222,
      "ae": 1223,
      "ober": 1224,
      "Ġimport": 1225,
      "ird": 1226,
      "por": 1227,
      "inc": 1228,
      "Ġmin": 1229,
      "Ġperiod": 1230,
      "omin": 1231,
      "Ġop": 1232,
      "Ġprogram": 1233,
      "ross": 1234,
      "ĠQ": 1235,
      "ĠGree": 1236,
      "Ġleg": 1237,
      "Ġback": 1238,
      "ec": 1239,
      "Ġshe": 1240,
      "gen": 1241,
      "oss": 1242,
      "Ġposs": 1243,
      "Ġeng": 1244,
      "Ġcountry": 1245,
      "Ġdeath": 1246,
      "Ġrecord": 1247,
      "Ġnon": 1248,
      "Ġlife": 1249,
      "ands": 1250,
      "ull": 1251,
      "Ġeconom": 1252,
      "ĠGe": 1253,
      "Ġ'": 1254,
      "ission": 1255,
      "ĠBo": 1256,
      "ĠĠĠĠ": 1257,
      "iven": 1258,
      "Ġappro": 1259,
      "Ġcult": 1260,
      "ll": 1261,
      "Ġthose": 1262,
      "ms": 1263,
      "rid": 1264,
      "Ġgu": 1265,
      "iving": 1266,
      "Ġmusic": 1267,
      "Ġcommun": 1268,
      "que": 1269,
      "ĠPr": 1270,
      "..": 1271,
      "Ġsuccess": 1272,
      "xt": 1273,
      "Ġfin": 1274,
      "ament": 1275,
      "med": 1276,
      "Ġthough": 1277,
      "Ġlanguage": 1278,
      "ove": 1279,
      "Ġdid": 1280,
      "iam": 1281,
      "Ġpar": 1282,
      "ring": 1283,
      "Ġseries": 1284,
      "Ġauthor": 1285,
      "icial": 1286,
      "Ġestab": 1287,
      "ĠKing": 1288,
      "ĠSch": 1289,
      "ilar": 1290,
      "Ġbased": 1291,
      "ration": 1292,
      "Ġcontrol": 1293,
      "ĠUS": 1294,
      "aim": 1295,
      "ze": 1296,
      "ended": 1297,
      "Ġdescrib": 1298,
      "Ġperson": 1299,
      "Ġconf": 1300,
      "Ġaround": 1301,
      "Ġlit": 1302,
      "Ġpo": 1303,
      "ym": 1304,
      "Ġexpl": 1305,
      "Ġright": 1306,
      "par": 1307,
      "ript": 1308,
      "iety": 1309,
      "let": 1310,
      "Ġeven": 1311,
      "ival": 1312,
      "Ġorder": 1313,
      "ize": 1314,
      "rum": 1315,
      "Ġusing": 1316,
      "Ġword": 1317,
      "Ġmar": 1318,
      "ilitary": 1319,
      "Ġdiv": 1320,
      "ĠThey": 1321,
      "ink": 1322,
      "ternal": 1323,
      "eng": 1324,
      "Ġbelie": 1325,
      "Ġperform": 1326,
      "Ġexper": 1327,
      "ata": 1328,
      "Ġwithin": 1329,
      "Ġvers": 1330,
      "ĠCent": 1331,
      "ĠThese": 1332,
      "ĠAb": 1333,
      "Ġtechn": 1334,
      "ode": 1335,
      "Ġ192": 1336,
      "Ġant": 1337,
      "17": 1338,
      "son": 1339,
      "ĠEar": 1340,
      "ey": 1341,
      "lands": 1342,
      "ently": 1343,
      "ĠNational": 1344,
      "ately": 1345,
      "Ġprop": 1346,
      "Ġmark": 1347,
      "Ġdem": 1348,
      "au": 1349,
      "Ġcomput": 1350,
      "omen": 1351,
      "urther": 1352,
      "Ġteam": 1353,
      "Ġmodern": 1354,
      "raft": 1355,
      "ĠPl": 1356,
      "Ġtyp": 1357,
      "Ġnear": 1358,
      "lic": 1359,
      "ĠPar": 1360,
      "Ġlike": 1361,
      "reen": 1362,
      "ĠAfter": 1363,
      "ential": 1364,
      "ological": 1365,
      "ĠEuropean": 1366,
      "ves": 1367,
      "Ġpopulation": 1368,
      "Ġinflu": 1369,
      "ane": 1370,
      "Ġopp": 1371,
      "Ġstand": 1372,
      "eb": 1373,
      "amed": 1374,
      "Ġfact": 1375,
      "Ġmuch": 1376,
      "Ġ12": 1377,
      "Ġamong": 1378,
      "ried": 1379,
      "ĠCanad": 1380,
      "Ġpass": 1381,
      "The": 1382,
      "Ġcharacter": 1383,
      "ness": 1384,
      "ĠEd": 1385,
      "Ġbegan": 1386,
      "get": 1387,
      "ories": 1388,
      "ĠComp": 1389,
      "Ġarea": 1390,
      "Ġann": 1391,
      "tle": 1392,
      "Ġdue": 1393,
      "Ġrece": 1394,
      "Ġrad": 1395,
      "Ġfre": 1396,
      "une": 1397,
      "aving": 1398,
      "Ġfollowing": 1399,
      "ĠRoman": 1400,
      "itional": 1401,
      "ense": 1402,
      "Ġvery": 1403,
      "ĠMus": 1404,
      "yd": 1405,
      "Ġav": 1406,
      "Ġrest": 1407,
      "Ġbas": 1408,
      "Ġcrit": 1409,
      "ĠBar": 1410,
      "Ġgeneral": 1411,
      "epend": 1412,
      "read": 1413,
      "aced": 1414,
      "by": 1415,
      "row": 1416,
      "Ġstat": 1417,
      "ody": 1418,
      "ĠItal": 1419,
      "Ġpopular": 1420,
      "Ġfield": 1421,
      "Ġadv": 1422,
      "Ġrev": 1423,
      "Ġprom": 1424,
      "Ġgl": 1425,
      "Ġresp": 1426,
      "irc": 1427,
      "ality": 1428,
      "Ġindu": 1429,
      "ĠPol": 1430,
      "ĠAll": 1431,
      "Ġnow": 1432,
      "agn": 1433,
      "200": 1434,
      "Ġstill": 1435,
      "Ġline": 1436,
      "ĠBy": 1437,
      "ĠYork": 1438,
      "Ġrepresent": 1439,
      "ior": 1440,
      "Ġmembers": 1441,
      "Ġtem": 1442,
      "hod": 1443,
      "Ġparticular": 1444,
      "ĠChar": 1445,
      "Ġconsidered": 1446,
      "Ġ14": 1447,
      "ivil": 1448,
      "ĠSouth": 1449,
      "Ġwater": 1450,
      "Ġread": 1451,
      "Ġsimilar": 1452,
      "isc": 1453,
      "af": 1454,
      "Ġgame": 1455,
      "ĠSome": 1456,
      "Ġrun": 1457,
      "line": 1458,
      "Ġstart": 1459,
      "cer": 1460,
      "Ġopen": 1461,
      "Ġes": 1462,
      "Ġinc": 1463,
      "Ġreport": 1464,
      "Ġhistor": 1465,
      "ai": 1466,
      "10": 1467,
      "ats": 1468,
      "dom": 1469,
      "Ġalong": 1470,
      "ilos": 1471,
      "ĠAnd": 1472,
      "Ġtr": 1473,
      "ese": 1474,
      "ublic": 1475,
      "apan": 1476,
      "ĠNorth": 1477,
      "ple": 1478,
      "Ġpoint": 1479,
      "Ġfore": 1480,
      "ĠRep": 1481,
      "app": 1482,
      "arm": 1483,
      "Ġpresent": 1484,
      "Ġphys": 1485,
      "rand": 1486,
      "Ġpolitical": 1487,
      "ards": 1488,
      "born": 1489,
      "estern": 1490,
      "Ġreturn": 1491,
      "Ġlast": 1492,
      "Ġland": 1493,
      "Ġhuman": 1494,
      "ott": 1495,
      "ĠWill": 1496,
      "Ġ-": 1497,
      "Ġhistory": 1498,
      "Ġplayer": 1499,
      "Ġcomb": 1500,
      "attle": 1501,
      "Ġchild": 1502,
      "ĠGen": 1503,
      "ĠChristian": 1504,
      "alth": 1505,
      "Ġwhat": 1506,
      "Ġschool": 1507,
      "Ġsol": 1508,
      "ĠRuss": 1509,
      "idd": 1510,
      "Ġgo": 1511,
      "Ġfoot": 1512,
      "Ġpat": 1513,
      "ĠAir": 1514,
      "amb": 1515,
      "eter": 1516,
      "ĠMay": 1517,
      "ĠX": 1518,
      "Ġless": 1519,
      "ĠAcc": 1520,
      "Ġstruct": 1521,
      "Ġpublished": 1522,
      "tal": 1523,
      "Ġled": 1524,
      "Ġgreat": 1525,
      "15": 1526,
      "Ġfunction": 1527,
      "rem": 1528,
      "ges": 1529,
      "Ġdown": 1530,
      "cing": 1531,
      "ĠHis": 1532,
      "Ġmilitary": 1533,
      "ĠHist": 1534,
      "rew": 1535,
      "Ġcell": 1536,
      "ales": 1537,
      "ĠChurch": 1538,
      "ribut": 1539,
      "Ġimportant": 1540,
      "Ġevery": 1541,
      "Ġplace": 1542,
      "ĠJapan": 1543,
      "Ġhig": 1544,
      ".,": 1545,
      "Ġnational": 1546,
      "ither": 1547,
      "Ġcour": 1548,
      "tic": 1549,
      "ĠAustral": 1550,
      "16": 1551,
      "day": 1552,
      "aster": 1553,
      "Ġold": 1554,
      "Ġgiven": 1555,
      "Ġhead": 1556,
      "Ġpract": 1557,
      "ertain": 1558,
      "urs": 1559,
      "cil": 1560,
      "Ġident": 1561,
      "ek": 1562,
      "Ġshort": 1563,
      "Ġtheory": 1564,
      "Ġsomet": 1565,
      "Ġsaid": 1566,
      "Ġexist": 1567,
      "ster": 1568,
      "akes": 1569,
      "ugust": 1570,
      "Ġanother": 1571,
      "Ġmult": 1572,
      "Ġview": 1573,
      "formation": 1574,
      "Ġbus": 1575,
      "Ġ13": 1576,
      "Ġide": 1577,
      "ilt": 1578,
      "Ġaff": 1579,
      "ination": 1580,
      "Ġsingle": 1581,
      "empt": 1582,
      "Ġsug": 1583,
      "Ġbuild": 1584,
      "ele": 1585,
      "sc": 1586,
      "Ġrepl": 1587,
      "Ġlevel": 1588,
      "ner": 1589,
      "istic": 1590,
      "ĠGreek": 1591,
      "itive": 1592,
      "ĠEl": 1593,
      "Ġfamily": 1594,
      "ĠOther": 1595,
      "Ġintrodu": 1596,
      "ches": 1597,
      "Ġdevelopment": 1598,
      "ĠDav": 1599,
      "Ġ190": 1600,
      "Ġvarious": 1601,
      "anu": 1602,
      "Ġtele": 1603,
      "Ġer": 1604,
      "ably": 1605,
      "Ġbi": 1606,
      "ĠCal": 1607,
      "Ġiss": 1608,
      "ĠGod": 1609,
      "etic": 1610,
      "iness": 1611,
      "Ġofficial": 1612,
      "lear": 1613,
      "Ġarg": 1614,
      "ogn": 1615,
      "Ġwithout": 1616,
      "Ġsour": 1617,
      "bo": 1618,
      "wards": 1619,
      "iron": 1620,
      "ances": 1621,
      "Ġdr": 1622,
      "ague": 1623,
      "ĠGeor": 1624,
      "ĠAugust": 1625,
      "Ġclaim": 1626,
      "Ġcountries": 1627,
      "Ġorigin": 1628,
      "ling": 1629,
      "less": 1630,
      "Ġvis": 1631,
      "Ġmake": 1632,
      "Ġlim": 1633,
      "ĠPres": 1634,
      "Ġsk": 1635,
      "Ġanal": 1636,
      "Ġprot": 1637,
      "ler": 1638,
      "rote": 1639,
      "Ġprim": 1640,
      "de": 1641,
      "ĠMon": 1642,
      "ergy": 1643,
      "ĠAss": 1644,
      "Ġusually": 1645,
      "ivid": 1646,
      "Ġinvol": 1647,
      "Ġbecome": 1648,
      "Ġcase": 1649,
      "Ġep": 1650,
      "ering": 1651,
      "Ġlo": 1652,
      "Ġdeveloped": 1653,
      "stit": 1654,
      "anish": 1655,
      "Ġcond": 1656,
      "Ġsystems": 1657,
      "Ġter": 1658,
      "ony": 1659,
      "Ġactiv": 1660,
      "Ġneed": 1661,
      "ule": 1662,
      "ĠNov": 1663,
      "ured": 1664,
      "Ġproble": 1665,
      "olic": 1666,
      "Ġlate": 1667,
      "Ġproper": 1668,
      "Ġsym": 1669,
      "ĠDuring": 1670,
      "Ġchang": 1671,
      "ril": 1672,
      "aining": 1673,
      "Ġformer": 1674,
      "Ġleft": 1675,
      "12": 1676,
      "ctor": 1677,
      "lished": 1678,
      "Ġlight": 1679,
      "Ġbeg": 1680,
      "Ġbook": 1681,
      "Ġway": 1682,
      "Ġjust": 1683,
      "tt": 1684,
      "atural": 1685,
      "ĠOne": 1686,
      "aul": 1687,
      "Ġcaus": 1688,
      "ray": 1689,
      "Ġfew": 1690,
      "Ġadm": 1691,
      "Ġ|": 1692,
      "oks": 1693,
      "adem": 1694,
      "Ġrelig": 1695,
      "Ġprof": 1696,
      "Ġport": 1697,
      "Ġstates": 1698,
      "Ġhome": 1699,
      "Ġla": 1700,
      "ĠAng": 1701,
      "Ġincluded": 1702,
      "pecial": 1703,
      "ype": 1704,
      "ĠWhen": 1705,
      "Ġcolle": 1706,
      "ead": 1707,
      "ids": 1708,
      "ĠCo": 1709,
      "ability": 1710,
      "14": 1711,
      "Ġhowever": 1712,
      "Ġassoci": 1713,
      "Ġel": 1714,
      "alf": 1715,
      "Ġtop": 1716,
      "ones": 1717,
      "Ġvol": 1718,
      "ferences": 1719,
      "ency": 1720,
      "ĠAccording": 1721,
      "ung": 1722,
      "ondon": 1723,
      "Ġmethod": 1724,
      "inks": 1725,
      "Ġoriginal": 1726,
      "Ġsocial": 1727,
      "199": 1728,
      "Ġday": 1729,
      "Ġarch": 1730,
      "Ġevent": 1731,
      "ĠBro": 1732,
      "Ġlocal": 1733,
      "Ġtit": 1734,
      "ths": 1735,
      "vision": 1736,
      "Ġreal": 1737,
      "aterial": 1738,
      "Ġindust": 1739,
      "ored": 1740,
      "pire": 1741,
      "ote": 1742,
      "ouncil": 1743,
      "serv": 1744,
      "ean": 1745,
      "ware": 1746,
      "ruction": 1747,
      "ician": 1748,
      "Ġlow": 1749,
      "Ġredu": 1750,
      "iation": 1751,
      "Ġbeh": 1752,
      "ĠBC": 1753,
      "Ġrul": 1754,
      "Ġmean": 1755,
      "ĠJu": 1756,
      "ividual": 1757,
      "Ġhand": 1758,
      "idence": 1759,
      "Ġdoes": 1760,
      "ĠWilliam": 1761,
      "Ġeduc": 1762,
      "Ġheld": 1763,
      "iction": 1764,
      "ander": 1765,
      "ĠSw": 1766,
      "Ġder": 1767,
      "most": 1768,
      "Ġproduction": 1769,
      "13": 1770,
      "rag": 1771,
      "Ġhel": 1772,
      "ification": 1773,
      "ĠPart": 1774,
      "Ġproduct": 1775,
      "astern": 1776,
      "Ġspecies": 1777,
      "craft": 1778,
      "side": 1779,
      "Ġwrote": 1780,
      "ĠAlex": 1781,
      "Ġtook": 1782,
      "for": 1783,
      "Ġdev": 1784,
      "ĠEngland": 1785,
      "ĠPe": 1786,
      "Ġengine": 1787,
      "ĠInternational": 1788,
      "che": 1789,
      "ĠMan": 1790,
      "Ġalthough": 1791,
      "yle": 1792,
      "Ġcirc": 1793,
      "Ġdecl": 1794,
      "Ã¡": 1795,
      "co": 1796,
      "cul": 1797,
      "Ġinit": 1798,
      "ĠLondon": 1799,
      "ĠUnion": 1800,
      "Ġcal": 1801,
      "Ġ$": 1802,
      "Ġmust": 1803,
      "Ġobject": 1804,
      "ificant": 1805,
      "Ġgroups": 1806,
      "ops": 1807,
      "Ġspace": 1808,
      "Ġprev": 1809,
      "ography": 1810,
      "Ġcomple": 1811,
      "ploy": 1812,
      "Ġlargest": 1813,
      "Ġwritten": 1814,
      "mber": 1815,
      "Ġsuggest": 1816,
      "ĠFl": 1817,
      "ĠWest": 1818,
      "ots": 1819,
      "Ġestablished": 1820,
      "Ġproduced": 1821,
      "ites": 1822,
      "Ġmaterial": 1823,
      "sequ": 1824,
      "ends": 1825,
      "Ġlanguages": 1826,
      "rab": 1827,
      "Ġanim": 1828,
      "int": 1829,
      "ipp": 1830,
      "Ġshould": 1831,
      "Ġdata": 1832,
      "ĠHar": 1833,
      "Ġindepend": 1834,
      "Ġfootball": 1835,
      "Ġnamed": 1836,
      "ham": 1837,
      "ental": 1838,
      "ning": 1839,
      "lin": 1840,
      "bert": 1841,
      "Ġmillion": 1842,
      "Ġsepar": 1843,
      "put": 1844,
      "Ġrese": 1845,
      "ps": 1846,
      "Ġtimes": 1847,
      "Ġsong": 1848,
      "Ġfive": 1849,
      "osp": 1850,
      "ĠJew": 1851,
      "ĠFrance": 1852,
      "Ġattempt": 1853,
      "Ġworks": 1854,
      "Ġrole": 1855,
      "Ġpain": 1856,
      "Ġkill": 1857,
      "inning": 1858,
      "Ġdel": 1859,
      "Ġgrow": 1860,
      "Ġindividual": 1861,
      "Ġsignificant": 1862,
      "augh": 1863,
      "omb": 1864,
      "Ġreleased": 1865,
      "Ġ189": 1866,
      "here": 1867,
      "ention": 1868,
      "Ġ&": 1869,
      "Ġmy": 1870,
      "ĠOct": 1871,
      "urg": 1872,
      "50": 1873,
      "ĠAmerica": 1874,
      "rict": 1875,
      "rain": 1876,
      "of": 1877,
      "Ġappear": 1878,
      "century": 1879,
      "Ġrelations": 1880,
      "ĠReferences": 1881,
      "Ġstudy": 1882,
      "Ġconc": 1883,
      "ĠMed": 1884,
      "anuary": 1885,
      "hers": 1886,
      "Ġcurrent": 1887,
      "rian": 1888,
      "Ġbody": 1889,
      "rated": 1890,
      "Ġcamp": 1891,
      "Ġsix": 1892,
      "arian": 1893,
      "Ġturn": 1894,
      "Ġseason": 1895,
      "ĠCor": 1896,
      "Ġlinks": 1897,
      "ĠGermany": 1898,
      "Ġbre": 1899,
      "cember": 1900,
      "Ġsyn": 1901,
      "Ġmanag": 1902,
      "Ġeither": 1903,
      "Ġphilos": 1904,
      "ĠSept": 1905,
      "Ġalb": 1906,
      "Ġareas": 1907,
      "Ġmass": 1908,
      "hern": 1909,
      "alk": 1910,
      "reg": 1911,
      "Ġge": 1912,
      "ected": 1913,
      "Ġtotal": 1914,
      "Ġgames": 1915,
      "umb": 1916,
      "ald": 1917,
      "ison": 1918,
      "ĠHer": 1919,
      "atin": 1920,
      "Ġhaving": 1921,
      "atter": 1922,
      "Ġspecial": 1923,
      "avy": 1924,
      "Ġothers": 1925,
      "Ġtreat": 1926,
      "incip": 1927,
      "aces": 1928,
      "ape": 1929,
      "Ġregion": 1930,
      "ĠJanuary": 1931,
      "Ġz": 1932,
      "Ġcompos": 1933,
      "sh": 1934,
      "Ġcr": 1935,
      "Ġpost": 1936,
      "ĠBer": 1937,
      "ways": 1938,
      "ĠBr": 1939,
      "Ġchem": 1940,
      "ope": 1941,
      "Ġmen": 1942,
      "eth": 1943,
      "ude": 1944,
      "ĠSoc": 1945,
      "abor": 1946,
      "ĠDecember": 1947,
      "Ġelectron": 1948,
      "ret": 1949,
      "Ġanc": 1950,
      "Ġsold": 1951,
      "Ġmeas": 1952,
      "ban": 1953,
      "Ġdescribed": 1954,
      "ĠAg": 1955,
      "Ġstrong": 1956,
      "bon": 1957,
      "oms": 1958,
      "oon": 1959,
      "aken": 1960,
      "acy": 1961,
      "Ġtest": 1962,
      "atures": 1963,
      "21": 1964,
      "Ġsometimes": 1965,
      "ĠEast": 1966,
      "ators": 1967,
      "Ġthird": 1968,
      "ille": 1969,
      "ĠSu": 1970,
      "emb": 1971,
      "rap": 1972,
      "Ġcreated": 1973,
      "ĠSeptember": 1974,
      "Ġexpress": 1975,
      "Ġfilms": 1976,
      "ĠWith": 1977,
      "ĠMarch": 1978,
      "Ġbase": 1979,
      "orthern": 1980,
      "ument": 1981,
      "ĠCity": 1982,
      "ĠOctober": 1983,
      "work": 1984,
      "ĠDes": 1985,
      "Ġcomplex": 1986,
      "Ġobserv": 1987,
      "Ġservice": 1988,
      "Ġfurther": 1989,
      "ĠJuly": 1990,
      "Ġcame": 1991,
      "rican": 1992,
      "self": 1993,
      "lo": 1994,
      "ĠJune": 1995,
      "Ġcare": 1996,
      "Ġ0": 1997,
      "Ġtri": 1998,
      "sy": 1999,
      "Ġversion": 2000,
      "ourn": 2001,
      "ending": 2002,
      "ĠDavid": 2003,
      "Ġplayed": 2004,
      "ĠApril": 2005,
      "ify": 2006,
      "bit": 2007,
      "Ġgenerally": 2008,
      "writ": 2009,
      "ining": 2010,
      "asing": 2011,
      "sp": 2012,
      "Ġenergy": 2013,
      "Ġtake": 2014,
      "Ġearli": 2015,
      "Ġnumbers": 2016,
      "Ġpossible": 2017,
      "wh": 2018,
      "Ġcompet": 2019,
      "Ġnov": 2020,
      "off": 2021,
      "ched": 2022,
      "thern": 2023,
      "Ġfree": 2024,
      "face": 2025,
      "ĠAlthough": 2026,
      "val": 2027,
      "Ġbuilt": 2028,
      "Ġcompany": 2029,
      "Ġposition": 2030,
      "ĠCath": 2031,
      "198": 2032,
      "Ġage": 2033,
      "Ġdest": 2034,
      "Ġforces": 2035,
      "Ġhelp": 2036,
      "Ġfrequ": 2037,
      "ford": 2038,
      "viron": 2039,
      "Ġcy": 2040,
      "Ġalbum": 2041,
      "oviet": 2042,
      "ĠNovember": 2043,
      "ĠHol": 2044,
      "iol": 2045,
      "Ġrather": 2046,
      "ana": 2047,
      "Ġ11": 2048,
      "Ġhow": 2049,
      "Ġmot": 2050,
      "Ġlist": 2051,
      "Ġoccur": 2052,
      "Ġproject": 2053,
      "pecially": 2054,
      "used": 2055,
      "iddle": 2056,
      "Ġaddition": 2057,
      "Ġnorth": 2058,
      "ridge": 2059,
      "Ġinterest": 2060,
      "Ġdiff": 2061,
      "ĠExternal": 2062,
      "Ġ188": 2063,
      "ma": 2064,
      "Ġwomen": 2065,
      "ffic": 2066,
      "Ġsw": 2067,
      "ume": 2068,
      "Ġstandard": 2069,
      "ief": 2070,
      "ĠPresident": 2071,
      "imate": 2072,
      "ĠÃ": 2073,
      "Ġconcept": 2074,
      "Ġwid": 2075,
      "Ġnet": 2076,
      "Ġwon": 2077,
      "Ġbusiness": 2078,
      "overed": 2079,
      "Ġ2010": 2080,
      "Ġsent": 2081,
      "Ġrecogn": 2082,
      "outhern": 2083,
      "Ġsum": 2084,
      "Ġpress": 2085,
      "ery": 2086,
      "Ġ[": 2087,
      "Ġpred": 2088,
      "acks": 2089,
      "Ġnatural": 2090,
      "aut": 2091,
      "eration": 2092,
      "ĠBel": 2093,
      "BC": 2094,
      "Ġcivil": 2095,
      "Ġtype": 2096,
      "peror": 2097,
      "ĠWhile": 2098,
      "Ġhalf": 2099,
      "Ġver": 2100,
      "ula": 2101,
      "Ġtransl": 2102,
      "Ġke": 2103,
      "Ġreceived": 2104,
      "ming": 2105,
      "ĠNe": 2106,
      "oyal": 2107,
      "ĠPress": 2108,
      "uel": 2109,
      "ĠSoviet": 2110,
      "Ġforce": 2111,
      "Ġchildren": 2112,
      "Ġcertain": 2113,
      "Ġavail": 2114,
      "ĠShe": 2115,
      "rug": 2116,
      "ĠIf": 2117,
      "Ġgood": 2118,
      "Ġcomputer": 2119,
      "Ġpa": 2120,
      "ĠAc": 2121,
      "ĠAct": 2122,
      "Ġinformation": 2123,
      "ino": 2124,
      "Ġ186": 2125,
      "ĠIm": 2126,
      "ront": 2127,
      "ĠPaul": 2128,
      "Ġsubject": 2129,
      "right": 2130,
      "Ġtemper": 2131,
      "aff": 2132,
      "Ġson": 2133,
      "Ġterms": 2134,
      "Ġleast": 2135,
      "Ġ(\"": 2136,
      "ows": 2137,
      "Ġdi": 2138,
      "ĠEmpire": 2139,
      "ateg": 2140,
      "11": 2141,
      "ĠRes": 2142,
      "inese": 2143,
      "enced": 2144,
      "ements": 2145,
      "ingu": 2146,
      "Ġinternational": 2147,
      "Ġenc": 2148,
      "ĠKingdom": 2149,
      "aries": 2150,
      "chan": 2151,
      "ĠRepublic": 2152,
      "ĠMany": 2153,
      "Ġbroad": 2154,
      "ips": 2155,
      "itted": 2156,
      "Ġmodel": 2157,
      "Ġchange": 2158,
      "Ġren": 2159,
      "action": 2160,
      "Ġprevious": 2161,
      "197": 2162,
      "inister": 2163,
      "Ġaccount": 2164,
      "Ġabove": 2165,
      "Ġnever": 2166,
      "ique": 2167,
      "not": 2168,
      "raw": 2169,
      "ĠItalian": 2170,
      "Ġcontinued": 2171,
      "Ġmember": 2172,
      "ĠAfrican": 2173,
      "ĠPort": 2174,
      "Ġsouth": 2175,
      "lement": 2176,
      "ĠSer": 2177,
      "iber": 2178,
      "Ġattack": 2179,
      "aur": 2180,
      "bs": 2181,
      "ĠSpanish": 2182,
      "Ġpot": 2183,
      "Ġside": 2184,
      "Ġ1990": 2185,
      "Ġaircraft": 2186,
      "ĠTe": 2187,
      "ĠMc": 2188,
      "Ġaccept": 2189,
      "Ġhold": 2190,
      "Ġprincip": 2191,
      "eum": 2192,
      "alt": 2193,
      "Ġ30": 2194,
      "Ġgr": 2195,
      "ples": 2196,
      "hib": 2197,
      "imately": 2198,
      "Ġmer": 2199,
      "Ġeconomic": 2200,
      "ky": 2201,
      "Ġsound": 2202,
      "ĠGeneral": 2203,
      "Ġliter": 2204,
      "Ġfinal": 2205,
      "ounced": 2206,
      "ebru": 2207,
      "ĠChina": 2208,
      "ebruary": 2209,
      "Ġdeb": 2210,
      "Ġking": 2211,
      "Ġden": 2212,
      "lor": 2213,
      "Ġdeterm": 2214,
      "Ġpresident": 2215,
      "Ġconstit": 2216,
      "Ġpri": 2217,
      "ĠRober": 2218,
      "Ġpriv": 2219,
      "Ġ1980": 2220,
      "Ġfail": 2221,
      "Ġimpro": 2222,
      "Ġseen": 2223,
      "Ġregard": 2224,
      "arily": 2225,
      "Ġscient": 2226,
      "Ġpur": 2227,
      "Ġespecially": 2228,
      "ensive": 2229,
      "oung": 2230,
      "ising": 2231,
      "Ġmeans": 2232,
      "ached": 2233,
      "Ġmultip": 2234,
      "vironment": 2235,
      "na": 2236,
      "stant": 2237,
      "ĠSy": 2238,
      "Ġpolitician": 2239,
      "ĠEarth": 2240,
      "Ġtw": 2241,
      "Ġmaking": 2242,
      "ria": 2243,
      "Ġrange": 2244,
      "II": 2245,
      "Ġelements": 2246,
      "ĠCharles": 2247,
      "ĠBra": 2248,
      "Ġforms": 2249,
      "ĠCount": 2250,
      "ĠChinese": 2251,
      "play": 2252,
      "Ġbest": 2253,
      "ney": 2254,
      "Ġ187": 2255,
      "ibr": 2256,
      "ara": 2257,
      "Ġmarket": 2258,
      "Ġindic": 2259,
      "Ġband": 2260,
      "Ġresearch": 2261,
      "Ġ2007": 2262,
      "ĠWe": 2263,
      "Ġpolic": 2264,
      "Ġparty": 2265,
      "kn": 2266,
      "Ġhost": 2267,
      "NA": 2268,
      "ĠPer": 2269,
      "Ġhigher": 2270,
      "Ġfull": 2271,
      "ĠDay": 2272,
      "cret": 2273,
      "Ġfood": 2274,
      "Ġfem": 2275,
      "ĠLatin": 2276,
      "stand": 2277,
      "ption": 2278,
      ".)": 2279,
      "Ġsuper": 2280,
      "Ġprote": 2281,
      "Ġdied": 2282,
      "Ġ2012": 2283,
      "ĠFebruary": 2284,
      "ĠGreat": 2285,
      "Ġavailable": 2286,
      "Ġ2011": 2287,
      "ĠJames": 2288,
      "Ġtelevision": 2289,
      "Ġtru": 2290,
      "Ġ2008": 2291,
      "ĠThom": 2292,
      "Ġcapital": 2293,
      "ĠColle": 2294,
      "aves": 2295,
      "rica": 2296,
      "Ġeth": 2297,
      "Ġhimself": 2298,
      "Ġ2013": 2299,
      "Ġtown": 2300,
      "Ġparts": 2301,
      "Ġ2000": 2302,
      "Ġ25": 2303,
      "Ġinvest": 2304,
      "cript": 2305,
      "Ġterrit": 2306,
      "iles": 2307,
      "ĠList": 2308,
      "liament": 2309,
      "ari": 2310,
      "ĠMost": 2311,
      "ially": 2312,
      "ka": 2313,
      "sych": 2314,
      "Ġknow": 2315,
      "Ġnext": 2316,
      "ĠDem": 2317,
      "Ã¶": 2318,
      "Ġthus": 2319,
      "Ġ1970": 2320,
      "Ġcoll": 2321,
      "Ġabs": 2322,
      "ĠGeorge": 2323,
      "Ġfire": 2324,
      "Ġ2009": 2325,
      "Ġformed": 2326,
      "Ġneg": 2327,
      "Ġevidence": 2328,
      "ĠCanada": 2329,
      "ocr": 2330,
      "ournal": 2331,
      "men": 2332,
      "Ġstyle": 2333,
      "ĠWestern": 2334,
      "Ġagre": 2335,
      "Ġlower": 2336,
      "Ġcop": 2337,
      "like": 2338,
      "uf": 2339,
      "ĠFre": 2340,
      "order": 2341,
      "ideo": 2342,
      "Ġrespect": 2343,
      "Ġstructure": 2344,
      "Ġsoft": 2345,
      "Ġblack": 2346,
      "ydro": 2347,
      "ĠCouncil": 2348,
      "ĠCentral": 2349,
      "uation": 2350,
      "ports": 2351,
      "Ġred": 2352,
      "chie": 2353,
      "Ġ2014": 2354,
      "ĠPhil": 2355,
      "Ġfund": 2356,
      "Ġplan": 2357,
      "Ġmathem": 2358,
      "Ġstory": 2359,
      "ĠHouse": 2360,
      "oid": 2361,
      "Ġintroduced": 2362,
      "ĠTo": 2363,
      "ĠState": 2364,
      "go": 2365,
      "cle": 2366,
      "ington": 2367,
      "ĠArab": 2368,
      "ĠSince": 2369,
      "Ġfollowed": 2370,
      "Ġprofess": 2371,
      "Ġvalue": 2372,
      "ĠHistory": 2373,
      "ĠRev": 2374,
      "ĠSm": 2375,
      "ysis": 2376,
      "Ġfac": 2377,
      "iqu": 2378,
      "ĠMor": 2379,
      "Ġ2006": 2380,
      "ett": 2381,
      "ÃŃ": 2382,
      "Ġnuc": 2383,
      "ush": 2384,
      "Ġitself": 2385,
      "rie": 2386,
      "ĠReg": 2387,
      "Ġthroughout": 2388,
      "Ġbir": 2389,
      "ĠArmy": 2390,
      "ĠGl": 2391,
      "ours": 2392,
      "mon": 2393,
      "cur": 2394,
      "Ġdefin": 2395,
      "Ġfar": 2396,
      "Ġfeature": 2397,
      "Ġculture": 2398,
      "Ġperm": 2399,
      "iers": 2400,
      "Ġcost": 2401,
      "ĠAfrica": 2402,
      "ama": 2403,
      "itor": 2404,
      "Ġoffer": 2405,
      "pite": 2406,
      "ĠGovern": 2407,
      "Ġschol": 2408,
      "Ġaccording": 2409,
      "Ġrate": 2410,
      "bor": 2411,
      "Ġconsist": 2412,
      "ving": 2413,
      "gether": 2414,
      "ĠCatholic": 2415,
      "Ġstar": 2416,
      "Ġtogether": 2417,
      "Ġcapt": 2418,
      "hest": 2419,
      "Ġcentral": 2420,
      "gypt": 2421,
      "ĠCanadian": 2422,
      "Ġunivers": 2423,
      "ceed": 2424,
      "Ġpoin": 2425,
      "ĠApp": 2426,
      "ades": 2427,
      "Ġill": 2428,
      "Ġdoc": 2429,
      "unic": 2430,
      "Ġfind": 2431,
      "Ġdou": 2432,
      "Ġnorm": 2433,
      "Ġaver": 2434,
      "Ġbar": 2435,
      "Ã¼": 2436,
      "udd": 2437,
      "Ġdays": 2438,
      "Ġsee": 2439,
      "Ġfather": 2440,
      "Ġscience": 2441,
      "Ġprob": 2442,
      "icle": 2443,
      "Ġwords": 2444,
      "Ġchurch": 2445,
      "Ġtraditional": 2446,
      "Ġinstead": 2447,
      "nd": 2448,
      "omm": 2449,
      "aps": 2450,
      "rest": 2451,
      "Ġtext": 2452,
      "atory": 2453,
      "Ġkey": 2454,
      "Ġadop": 2455,
      "ĠCont": 2456,
      "Ġadminist": 2457,
      "ĠIndian": 2458,
      "Ġfig": 2459,
      "ĠQu": 2460,
      "\")": 2461,
      "Ġentire": 2462,
      "atives": 2463,
      "Ġexec": 2464,
      "ĠJapanese": 2465,
      "ĠTur": 2466,
      "Ġmeaning": 2467,
      "Ġborn": 2468,
      "Ġ2005": 2469,
      "Ġalmost": 2470,
      "Ġtro": 2471,
      "Ġmid": 2472,
      "Ġet": 2473,
      "ee": 2474,
      "Ġhard": 2475,
      "Ġapplic": 2476,
      "erous": 2477,
      "Ġjoin": 2478,
      "rick": 2479,
      "itect": 2480,
      "Ġupon": 2481,
      "Ġmovement": 2482,
      "Ġacross": 2483,
      "ĠEgypt": 2484,
      "Ġlog": 2485,
      "osition": 2486,
      "Ġdeg": 2487,
      "Ġ2015": 2488,
      "ĠFrank": 2489,
      "Ġhouse": 2490,
      "ĠFrom": 2491,
      "ĠNo": 2492,
      "Ġuses": 2493,
      "Ġassociated": 2494,
      "ened": 2495,
      "ols": 2496,
      "Ġemploy": 2497,
      "icult": 2498,
      "Ġwhose": 2499,
      "atal": 2500,
      "rel": 2501,
      "Ġdistin": 2502,
      "uth": 2503,
      "cast": 2504,
      "ights": 2505,
      "aint": 2506,
      "Ġinfluence": 2507,
      "Ġlik": 2508,
      "ini": 2509,
      "ĠLa": 2510,
      "ederal": 2511,
      "istan": 2512,
      "Ġlet": 2513,
      "ĠPal": 2514,
      "Ġcritic": 2515,
      "atively": 2516,
      "ounter": 2517,
      "ĠLeague": 2518,
      "Ġ21": 2519,
      "ĠAnt": 2520,
      "Ġ1960": 2521,
      "40": 2522,
      "zer": 2523,
      "oted": 2524,
      "ha": 2525,
      "ĠParty": 2526,
      "ĠRiver": 2527,
      "oe": 2528,
      "rial": 2529,
      "ĠRobert": 2530,
      "Ġinteg": 2531,
      "sel": 2532,
      "Ġpers": 2533,
      "ĠArt": 2534,
      "Ġeducation": 2535,
      "uk": 2536,
      "Ġconn": 2537,
      "ĠRich": 2538,
      "Ġaccess": 2539,
      "ĠCro": 2540,
      "lam": 2541,
      "Ġbecom": 2542,
      "Ġsuccessful": 2543,
      "Ġcases": 2544,
      "30": 2545,
      "Ġexcept": 2546,
      "inary": 2547,
      "ream": 2548,
      "utions": 2549,
      "Ġtaken": 2550,
      "Ġfoc": 2551,
      "Ġthought": 2552,
      "Ġfri": 2553,
      "Ġreferred": 2554,
      "ophy": 2555,
      "anted": 2556,
      "ĠBlack": 2557,
      "utes": 2558,
      "Ġimm": 2559,
      "Ġmechan": 2560,
      "ĠCong": 2561,
      "Ġincludes": 2562,
      "Ġrelated": 2563,
      "ems": 2564,
      "Ġ2016": 2565,
      "Ġcross": 2566,
      "ĠSte": 2567,
      "Ġsit": 2568,
      "Ġcolon": 2569,
      "ĠHen": 2570,
      "Ġtrade": 2571,
      "clus": 2572,
      "Ġox": 2573,
      "Ġfav": 2574,
      "rast": 2575,
      "amples": 2576,
      "Ġapprox": 2577,
      "Ġground": 2578,
      "mercial": 2579,
      "Ġlocated": 2580,
      "Ġreported": 2581,
      "Ġisland": 2582,
      "rael": 2583,
      "Ġcoast": 2584,
      "ĠMod": 2585,
      "Ġmaint": 2586,
      "Ġreligious": 2587,
      "196": 2588,
      "Ġincreased": 2589,
      "Ġsymb": 2590,
      "ĠRussian": 2591,
      "Ġtitle": 2592,
      "Ġtradition": 2593,
      "Ġmagn": 2594,
      "ores": 2595,
      "ĠPark": 2596,
      "Ġsize": 2597,
      "Ġmach": 2598,
      "Ġast": 2599,
      "eh": 2600,
      "Ġsequ": 2601,
      "ought": 2602,
      "Ġcompan": 2603,
      "Ġinstrum": 2604,
      "arn": 2605,
      "Ġplayers": 2606,
      "25": 2607,
      "Ġfall": 2608,
      "ĠFirst": 2609,
      "ength": 2610,
      "ĠSchool": 2611,
      "anc": 2612,
      "Ġrespons": 2613,
      "Ġclub": 2614,
      "Ġevents": 2615,
      "istics": 2616,
      "Ġ100": 2617,
      "Ġamount": 2618,
      "Ġball": 2619,
      "Ġmix": 2620,
      "Ġestim": 2621,
      "ibility": 2622,
      "Ġgra": 2623,
      "iter": 2624,
      "iting": 2625,
      "ression": 2626,
      "Ġrequired": 2627,
      "ael": 2628,
      "Ġancient": 2629,
      "Ġstri": 2630,
      "Ġviol": 2631,
      "Ġrule": 2632,
      "Ġsource": 2633,
      "Ġspecific": 2634,
      "Ġnovel": 2635,
      "ror": 2636,
      "medi": 2637,
      "Ġachie": 2638,
      "ĠArch": 2639,
      "Ġrights": 2640,
      "Ġdefined": 2641,
      "ĠRoyal": 2642,
      "Ġcondu": 2643,
      "Ġdefe": 2644,
      "Ġprovide": 2645,
      "Ġmight": 2646,
      "ĠTrans": 2647,
      "Ġdifficult": 2648,
      "Ġmeet": 2649,
      "ĠMart": 2650,
      "elling": 2651,
      "ties": 2652,
      "Ġâ": 2653,
      "key": 2654,
      "Ġdig": 2655,
      "ĠMich": 2656,
      "Ġindustry": 2657,
      "utch": 2658,
      "Ġess": 2659,
      "Ġdomin": 2660,
      "ago": 2661,
      "Ġconcern": 2662,
      "Ġlost": 2663,
      "Ġquant": 2664,
      "Ġlaun": 2665,
      "Ġclos": 2666,
      "Ġsinger": 2667,
      "Ġparticularly": 2668,
      "Ġallowed": 2669,
      "writer": 2670,
      "Ġsat": 2671,
      "itude": 2672,
      "ires": 2673,
      ");": 2674,
      "vention": 2675,
      "hel": 2676,
      "Ġforeign": 2677,
      "mar": 2678,
      "ributed": 2679,
      "Ġcourt": 2680,
      "Ġ=": 2681,
      "Ġmiss": 2682,
      "ĠFurther": 2683,
      "Ġinterp": 2684,
      "inter": 2685,
      "Ġsurv": 2686,
      "Ġbuilding": 2687,
      "ĠSan": 2688,
      "year": 2689,
      "Ġbooks": 2690,
      "itch": 2691,
      "Ġsuff": 2692,
      "Ġaud": 2693,
      "Ġ24": 2694,
      "roy": 2695,
      "Ġable": 2696,
      "bra": 2697,
      "Ġaverage": 2698,
      "aign": 2699,
      "iforn": 2700,
      "ĠCour": 2701,
      "Ġtypes": 2702,
      "pir": 2703,
      "ension": 2704,
      "Ġarmy": 2705,
      "Ġeffects": 2706,
      "ledge": 2707,
      "Ġpercent": 2708,
      "Ġproblem": 2709,
      "itar": 2710,
      "ĠIr": 2711,
      "Ġprovided": 2712,
      "ĠUK": 2713,
      "Ġservices": 2714,
      "reet": 2715,
      "Ã³": 2716,
      "ĠAustralian": 2717,
      "iment": 2718,
      "Ġonce": 2719,
      "Ġdesigned": 2720,
      "asc": 2721,
      "be": 2722,
      "Ġ2018": 2723,
      "Ġcommunity": 2724,
      "ste": 2725,
      "Ġtypically": 2726,
      "Ġrelationship": 2727,
      "berg": 2728,
      "ranch": 2729,
      "Ġrail": 2730,
      "ĠAustralia": 2731,
      "Ġpast": 2732,
      "Ġactor": 2733,
      "Ġ2004": 2734,
      "Ġinstit": 2735,
      "ishing": 2736,
      "ĠHigh": 2737,
      "Ġ2020": 2738,
      "rought": 2739,
      "Ġacadem": 2740,
      "ĠIndia": 2741,
      "ulated": 2742,
      "Ġmag": 2743,
      "Ġremained": 2744,
      "Ġcreat": 2745,
      "rate": 2746,
      "ĠBas": 2747,
      "Ġ2017": 2748,
      "based": 2749,
      "Ġsurface": 2750,
      "Ġestablish": 2751,
      "aval": 2752,
      "Ġenvironment": 2753,
      "ference": 2754,
      "Ġput": 2755,
      "ĠBur": 2756,
      "Ġmount": 2757,
      "uture": 2758,
      "ero": 2759,
      "Ġhydro": 2760,
      "ĠFin": 2761,
      "cies": 2762,
      "Ġnames": 2763,
      "ilities": 2764,
      "Ġfeatures": 2765,
      "lied": 2766,
      "Ġincreasing": 2767,
      "Ġsoftware": 2768,
      "Ġ2001": 2769,
      "ads": 2770,
      "ĠRed": 2771,
      "Ġbattle": 2772,
      "Ġaltern": 2773,
      "ĠCons": 2774,
      "Ġquest": 2775,
      "ĠSim": 2776,
      "Ġnature": 2777,
      "Ġfounded": 2778,
      "Ġcontinu": 2779,
      "ĠLou": 2780,
      "rim": 2781,
      "ĠThomas": 2782,
      "icro": 2783,
      "oses": 2784,
      "Ġgave": 2785,
      "Ġradio": 2786,
      "oice": 2787,
      "Ġdom": 2788,
      "ĠMet": 2789,
      "resp": 2790,
      "Ġsex": 2791,
      "Ġang": 2792,
      "ĠTreat": 2793,
      "iding": 2794,
      "Ġannounced": 2795,
      "Ġcommercial": 2796,
      "Ġtre": 2797,
      "Ġoutside": 2798,
      "ĠGro": 2799,
      "Ġbelieved": 2800,
      "ĠPri": 2801,
      "Ġdirector": 2802,
      "pper": 2803,
      "Ġwent": 2804,
      "ĠĠĠĠĠĠĠĠ": 2805,
      "Ġlarger": 2806,
      "lim": 2807,
      "Ġaction": 2808,
      "orph": 2809,
      "Ġste": 2810,
      "ĠFilm": 2811,
      "ĠRo": 2812,
      "Ġself": 2813,
      "ulf": 2814,
      "Ġvict": 2815,
      "ĠCaliforn": 2816,
      "Ġclose": 2817,
      "Ġpoints": 2818,
      "Ġcommonly": 2819,
      "...": 2820,
      "ont": 2821,
      "Ġdise": 2822,
      "ĠBritain": 2823,
      "Ġfa": 2824,
      "ike": 2825,
      "Ġvideo": 2826,
      "Ġincrease": 2827,
      "Ġcharacters": 2828,
      "Ġchanges": 2829,
      "Ġarm": 2830,
      "Ġ2019": 2831,
      "Ġelement": 2832,
      "ĠAlexander": 2833,
      "Ġrock": 2834,
      "isl": 2835,
      "Ġvari": 2836,
      "Ġcarbon": 2837,
      "Ġmoved": 2838,
      "oul": 2839,
      "ection": 2840,
      "Ġnecess": 2841,
      "Ġpsych": 2842,
      "Ġphot": 2843,
      "'t": 2844,
      "uries": 2845,
      "Ġmale": 2846,
      "Ġparticip": 2847,
      "Ġappeared": 2848,
      "Ġarchitect": 2849,
      "Ġleading": 2850,
      "anded": 2851,
      "Ġstarted": 2852,
      "antic": 2853,
      "Ġwhite": 2854,
      "ĠColumb": 2855,
      "SA": 2856,
      "Ġresults": 2857,
      "Ġelection": 2858,
      "Ġpractice": 2859,
      "ras": 2860,
      "Ġten": 2861,
      "Ġgre": 2862,
      "Ġlive": 2863,
      "umn": 2864,
      "ij": 2865,
      "Ġmonths": 2866,
      "Ġpoet": 2867,
      "Ġtar": 2868,
      "ĠCalifornia": 2869,
      "Ġcities": 2870,
      "Ġreb": 2871,
      "Ġtax": 2872,
      "Ġhealth": 2873,
      "aching": 2874,
      "Ġtransport": 2875,
      "ĠCollege": 2876,
      "Ġcover": 2877,
      "ĠPeople": 2878,
      "iff": 2879,
      "ufact": 2880,
      "Ġlines": 2881,
      "ĠPat": 2882,
      "Ġemer": 2883,
      "Ġarr": 2884,
      "Ġeventually": 2885,
      "Ġconsider": 2886,
      "irit": 2887,
      "Ġcause": 2888,
      "Ġhom": 2889,
      "Åį": 2890,
      "ĠFranc": 2891,
      "Ġserved": 2892,
      "icles": 2893,
      "ĠScott": 2894,
      "Ġproduce": 2895,
      "artment": 2896,
      "ston": 2897,
      "Ġsite": 2898,
      "Ġlittle": 2899,
      "owers": 2900,
      "itiz": 2901,
      "Ġmanufact": 2902,
      "spe": 2903,
      "Ġgrad": 2904,
      "oney": 2905,
      "Ġsqu": 2906,
      "Ġcaused": 2907,
      "Ġ50": 2908,
      "Ġleaders": 2909,
      "ivity": 2910,
      "gor": 2911,
      "ios": 2912,
      "Ġrequire": 2913,
      "isms": 2914,
      "Ġwhether": 2915,
      "ĠÎ": 2916,
      "Ġwriting": 2917,
      "ĠGold": 2918,
      "Ġrecorded": 2919,
      "Ġbehav": 2920,
      "Ġord": 2921,
      "ribution": 2922,
      "respond": 2923,
      "ables": 2924,
      "ĠAtl": 2925,
      "Ġ+": 2926,
      "lying": 2927,
      "Ġ2003": 2928,
      "Ġwidely": 2929,
      "Ġthemsel": 2930,
      "Ġjud": 2931,
      "Ġthemselves": 2932,
      "Ġalways": 2933,
      "Ġregular": 2934,
      "ords": 2935,
      "ĠMe": 2936,
      "Ġche": 2937,
      "Ġsaw": 2938,
      "Ġcolor": 2939,
      "known": 2940,
      "wood": 2941,
      "Ġmother": 2942,
      "ĠSal": 2943,
      "Ġpurp": 2944,
      "Ġcompanies": 2945,
      "pro": 2946,
      "Ġspeed": 2947,
      "Ġproblems": 2948,
      "ĠJewish": 2949,
      "ĠBudd": 2950,
      "Ġcampaign": 2951,
      "ext": 2952,
      "Ġconditions": 2953,
      "Ġfight": 2954,
      "Ġpotential": 2955,
      "anks": 2956,
      "Ġris": 2957,
      "alled": 2958,
      "eleb": 2959,
      "Ġliving": 2960,
      "Ġprivate": 2961,
      "ĠKh": 2962,
      "Ġadded": 2963,
      "hing": 2964,
      "Ġmajority": 2965,
      "Ġsources": 2966,
      "Ġloss": 2967,
      "ux": 2968,
      "ĠInstit": 2969,
      "Ġeffort": 2970,
      "Ġclear": 2971,
      "ĠEs": 2972,
      "Ġphysical": 2973,
      "):": 2974,
      "ĠDutch": 2975,
      "Ġnetwork": 2976,
      "ĠGreen": 2977,
      "obal": 2978,
      "Ġsay": 2979,
      "Ġbeginning": 2980,
      "ĠSea": 2981,
      "ĠEmperor": 2982,
      "airs": 2983,
      "Ġstated": 2984,
      "anced": 2985,
      "Ġtour": 2986,
      "Ġbelow": 2987,
      "Ġprimary": 2988,
      "Ġproposed": 2989,
      "ĠDep": 2990,
      "Ġopt": 2991,
      "Ġlegal": 2992,
      "Ġur": 2993,
      "Ġscreen": 2994,
      "Ġlonger": 2995,
      "ibrary": 2996,
      "ĠRichard": 2997,
      "Ġreason": 2998,
      "Ġbrought": 2999,
      "Ġsubsequ": 3000,
      "Ġvir": 3001,
      "Ġconver": 3002,
      "ister": 3003,
      "Ġworking": 3004,
      "ĠMuseum": 3005,
      "Ġmole": 3006,
      "Ġreading": 3007,
      "asion": 3008,
      "ĠAward": 3009,
      "Ġyou": 3010,
      "Ġcode": 3011,
      "ancial": 3012,
      "reme": 3013,
      "ĠAssoci": 3014,
      "Ġearlier": 3015,
      "curity": 3016,
      "Ġaway": 3017,
      "Ġlack": 3018,
      "Ġlimited": 3019,
      "ĠVol": 3020,
      "ĠCourt": 3021,
      "Ġconstruction": 3022,
      "ĠOld": 3023,
      "Ġgrowth": 3024,
      "ithm": 3025,
      "Ġanti": 3026,
      "ĠBattle": 3027,
      "ĠIsrael": 3028,
      "ĠDon": 3029,
      "Ġreplaced": 3030,
      "Ġdam": 3031,
      "ĠVal": 3032,
      "Ġfunctions": 3033,
      "ĠItaly": 3034,
      "million": 3035,
      "Ġgod": 3036,
      "Ġchemical": 3037,
      "uck": 3038,
      "odes": 3039,
      "perial": 3040,
      "Ġsem": 3041,
      "ills": 3042,
      "ously": 3043,
      "Ġindependent": 3044,
      "ĠDo": 3045,
      "Ġbound": 3046,
      "ĠMac": 3047,
      "ĠConf": 3048,
      "me": 3049,
      "Ġunit": 3050,
      "och": 3051,
      "ta": 3052,
      "ĠGal": 3053,
      "porary": 3054,
      "Ġeconomy": 3055,
      "ĠHistor": 3056,
      "ola": 3057,
      "ien": 3058,
      "Ġunits": 3059,
      "ĠEv": 3060,
      "rig": 3061,
      "Ġlay": 3062,
      "now": 3063,
      "ico": 3064,
      "ĠParis": 3065,
      "Ġgas": 3066,
      "ĠHenry": 3067,
      "itte": 3068,
      "Ġletter": 3069,
      "Ġacid": 3070,
      "igned": 3071,
      "Ġhon": 3072,
      "Ġguitar": 3073,
      "Ġdyn": 3074,
      "Ġ1999": 3075,
      "Ġreturned": 3076,
      "Ġvia": 3077,
      "ĠIslands": 3078,
      "Amer": 3079,
      "Ġpen": 3080,
      "ĠBook": 3081,
      "Ġlab": 3082,
      "ĠMy": 3083,
      "22": 3084,
      "Ġtravel": 3085,
      "ĠSociety": 3086,
      "ĠLaw": 3087,
      "aughter": 3088,
      "Ġeas": 3089,
      "ĠSl": 3090,
      "Ġdirectly": 3091,
      "Ġeight": 3092,
      "Ġtoo": 3093,
      "ĠBut": 3094,
      "uit": 3095,
      "ampions": 3096,
      "Ġpolicy": 3097,
      "Ġtoday": 3098,
      "iences": 3099,
      "ĠQue": 3100,
      "ĠNor": 3101,
      "ĠEarly": 3102,
      "ricult": 3103,
      "Ġlikely": 3104,
      "Ġmostly": 3105,
      "Ġadapt": 3106,
      "Ġremov": 3107,
      "Ġ2002": 3108,
      "uted": 3109,
      "ĠCommun": 3110,
      "onic": 3111,
      "Ġfuture": 3112,
      "Ġoccup": 3113,
      "ĠâĢ": 3114,
      "Ġcorrespond": 3115,
      "Ġkilled": 3116,
      "Ġproducer": 3117,
      "ĠIsland": 3118,
      "Ġhighest": 3119,
      "Ġschools": 3120,
      "isions": 3121,
      "Ġanalysis": 3122,
      "rus": 3123,
      "ĠDef": 3124,
      "ĠMinister": 3125,
      "ground": 3126,
      "Ġgun": 3127,
      "olk": 3128,
      "Ġgold": 3129,
      "ĠAnother": 3130,
      "Ġacademic": 3131,
      "Ġcommunic": 3132,
      "Ġremains": 3133,
      "ients": 3134,
      "Ġ1950": 3135,
      "Ġtheore": 3136,
      "Ġcust": 3137,
      "ready": 3138,
      "Ġdial": 3139,
      "Ġcome": 3140,
      "Ġcareer": 3141,
      "ĠAcadem": 3142,
      "Ġrat": 3143,
      "illa": 3144,
      "acter": 3145,
      "Ġpay": 3146,
      "Ġacqu": 3147,
      "ĠPeter": 3148,
      "istance": 3149,
      "Ġimplement": 3150,
      "Ġinvolved": 3151,
      "Ġproducts": 3152,
      "Ġlength": 3153,
      "Ġdocument": 3154,
      "Ġprec": 3155,
      "pected": 3156,
      "burg": 3157,
      "Ġnorthern": 3158,
      "Ġ26": 3159,
      "bed": 3160,
      "Ġpersonal": 3161,
      "vin": 3162,
      "ili": 3163,
      "Ġconcent": 3164,
      "ĠWash": 3165,
      "izing": 3166,
      "ift": 3167,
      "Ġaward": 3168,
      "Ġjournal": 3169,
      "ĠInter": 3170,
      "ĠSpain": 3171,
      "ĠEastern": 3172,
      "Ġdiscuss": 3173,
      "Ġoffice": 3174,
      "Ġbrother": 3175,
      "American": 3176,
      "onse": 3177,
      "ĠFore": 3178,
      "ĠCamb": 3179,
      "ĠPers": 3180,
      "aged": 3181,
      "cont": 3182,
      "axim": 3183,
      "ĠDan": 3184,
      "Ġcard": 3185,
      "Ġepis": 3186,
      "Ġtemperature": 3187,
      "ĠApoll": 3188,
      "Ġspeak": 3189,
      "ishop": 3190,
      "Ġyoung": 3191,
      "Ġblood": 3192,
      "Ġoriginally": 3193,
      "ĠStud": 3194,
      "Ġsmaller": 3195,
      "ĠZe": 3196,
      "Ġ40": 3197,
      "Ġcut": 3198,
      "ĠNet": 3199,
      "zil": 3200,
      "ĠEr": 3201,
      "anned": 3202,
      "Ġmathemat": 3203,
      "Ġcontains": 3204,
      "Ġ23": 3205,
      "Ġlaws": 3206,
      "Ġcells": 3207,
      "ĠCivil": 3208,
      "Ġtechnology": 3209,
      "min": 3210,
      "ressed": 3211,
      "oral": 3212,
      "ĠHall": 3213,
      "ects": 3214,
      "Ġseparate": 3215,
      "Ġmultiple": 3216,
      "gian": 3217,
      "arc": 3218,
      "ĠEp": 3219,
      "Ġmetal": 3220,
      "Ġrelease": 3221,
      "Ġbene": 3222,
      "Ġseven": 3223,
      "Ġbirth": 3224,
      "ĠMat": 3225,
      "Ġstudents": 3226,
      "utive": 3227,
      "het": 3228,
      "Ġeast": 3229,
      "ĠAsia": 3230,
      "Ġvariety": 3231,
      "nel": 3232,
      "ĠBu": 3233,
      "ĠDen": 3234,
      "Ġcou": 3235,
      "Ġwest": 3236,
      "Ġstation": 3237,
      "Ġidea": 3238,
      "Ġdestroy": 3239,
      "Ġceleb": 3240,
      "oor": 3241,
      "Ġcannot": 3242,
      "ĠWashington": 3243,
      "Ġ185": 3244,
      "Ġsouthern": 3245,
      "ĠSam": 3246,
      "Ġmedia": 3247,
      "pan": 3248,
      "Ġperformance": 3249,
      "24": 3250,
      "onents": 3251,
      "ĠForce": 3252,
      "Ġperformed": 3253,
      "Ġcomplete": 3254,
      "Ġremain": 3255,
      "ĠJose": 3256,
      "ĠLouis": 3257,
      "Ġcreate": 3258,
      "ipl": 3259,
      "field": 3260,
      "time": 3261,
      "ĠAD": 3262,
      ",\"": 3263,
      "Ġmethods": 3264,
      "Ġcateg": 3265,
      "Ġbasis": 3266,
      "reland": 3267,
      "Ġrecent": 3268,
      "gin": 3269,
      "ĠElect": 3270,
      "ĠParliament": 3271,
      "ĠMiddle": 3272,
      "Ġdistinct": 3273,
      "ĠIts": 3274,
      "opp": 3275,
      "ĠSystem": 3276,
      "Ġbelief": 3277,
      "Ġstudies": 3278,
      "Ġprevent": 3279,
      "Ġrules": 3280,
      "Ġalready": 3281,
      "Ġsil": 3282,
      "win": 3283,
      "Ġobt": 3284,
      "standing": 3285,
      "Ġrap": 3286,
      "ki": 3287,
      "ĠSecond": 3288,
      "isation": 3289,
      "ellig": 3290,
      "Ġminor": 3291,
      "ector": 3292,
      "abit": 3293,
      "ĠBay": 3294,
      "odox": 3295,
      "elled": 3296,
      "Ġ184": 3297,
      "gely": 3298,
      "Ġfront": 3299,
      "ĠGrand": 3300,
      "Ġregions": 3301,
      "ĠMore": 3302,
      "Ġera": 3303,
      "ĠSwed": 3304,
      "ĠSmith": 3305,
      "Ġadopted": 3306,
      "Ġi": 3307,
      "iant": 3308,
      "asons": 3309,
      "Ġscholars": 3310,
      "ĠSpe": 3311,
      "Ġcultural": 3312,
      "met": 3313,
      "194": 3314,
      "Ġgreater": 3315,
      "otic": 3316,
      "Ġrank": 3317,
      "ĠClass": 3318,
      "ging": 3319,
      "ĠBen": 3320,
      "Ġoil": 3321,
      "Ġcred": 3322,
      "ĠRome": 3323,
      "onst": 3324,
      "Ġhistorical": 3325,
      "Ġmeasure": 3326,
      "ked": 3327,
      "orial": 3328,
      "gar": 3329,
      "Ġhor": 3330,
      "ĠTr": 3331,
      "ĠIreland": 3332,
      "ocratic": 3333,
      "Ġapproximately": 3334,
      "omer": 3335,
      "Ġtherefore": 3336,
      "Ġtowards": 3337,
      "olf": 3338,
      "Ġcoin": 3339,
      "Ġsea": 3340,
      "Ġ1998": 3341,
      "ĠMount": 3342,
      "Ġ1996": 3343,
      "ĠDel": 3344,
      "Ġ2021": 3345,
      "ĠMark": 3346,
      "ona": 3347,
      "ĠCongress": 3348,
      "Ġwriters": 3349,
      "otes": 3350,
      "ĠProt": 3351,
      "Ġproperties": 3352,
      "Ġoperations": 3353,
      "Ġ1997": 3354,
      "Ġshown": 3355,
      "ĠJes": 3356,
      "ns": 3357,
      "Ġelectric": 3358,
      "Äģ": 3359,
      "Ġgraph": 3360,
      "Ġpressure": 3361,
      "Ġfootballer": 3362,
      "Ġplant": 3363,
      "Ġwife": 3364,
      "195": 3365,
      "ĠMal": 3366,
      "Ġelected": 3367,
      "Ġsupported": 3368,
      "Ġsociety": 3369,
      "ĠVir": 3370,
      "Ġens": 3371,
      "ĠWil": 3372,
      "mark": 3373,
      "DP": 3374,
      "80": 3375,
      "ĠDu": 3376,
      "Ġdiscovered": 3377,
      "ĠOff": 3378,
      "ĠMex": 3379,
      "ador": 3380,
      "uter": 3381,
      "Ġsett": 3382,
      "era": 3383,
      "Ġconsum": 3384,
      "aring": 3385,
      "imal": 3386,
      "view": 3387,
      "Ġcru": 3388,
      "Ġactive": 3389,
      "Ġlargely": 3390,
      "can": 3391,
      "rative": 3392,
      "Ġtrue": 3393,
      "Ġshows": 3394,
      "thodox": 3395,
      "Ġplaced": 3396,
      "Ġmission": 3397,
      "ĠPortug": 3398,
      "Ġtrib": 3399,
      "Ġreached": 3400,
      "ĠIrish": 3401,
      "Ġbetter": 3402,
      "Ġalgor": 3403,
      "Ġwhom": 3404,
      "Ġfinancial": 3405,
      "Ġcitiz": 3406,
      "idents": 3407,
      "Ġcenter": 3408,
      "Ġgive": 3409,
      "cks": 3410,
      "change": 3411,
      "Ġreview": 3412,
      "ĠBrazil": 3413,
      "izations": 3414,
      "Ġdefinition": 3415,
      "ĠApollo": 3416,
      "Ġever": 3417,
      "23": 3418,
      "ests": 3419,
      "Ġget": 3420,
      "Ġadditional": 3421,
      "Ġlevels": 3422,
      "Ġoffic": 3423,
      "Ġcalcul": 3424,
      "fficient": 3425,
      "Ġdetail": 3426,
      "Ġcommand": 3427,
      "ply": 3428,
      "Ġresponse": 3429,
      "Ġcry": 3430,
      "Ġpie": 3431,
      "Ġnumerous": 3432,
      "ittee": 3433,
      "Ġnar": 3434,
      "Ġcast": 3435,
      "Ġpath": 3436,
      "ĠRad": 3437,
      "ĠRec": 3438,
      "Ġestimated": 3439,
      "itt": 3440,
      "olved": 3441,
      "Ġhighly": 3442,
      "ises": 3443,
      "Ġcontain": 3444,
      "ĠNavy": 3445,
      "atch": 3446,
      "ĠTer": 3447,
      "ĠCy": 3448,
      "Ġcounter": 3449,
      "Ġknowledge": 3450,
      "Ġfocus": 3451,
      "aches": 3452,
      "Ġleader": 3453,
      "Ġforest": 3454,
      "ulations": 3455,
      "âĢĻ": 3456,
      "Ġcenturies": 3457,
      "Ġ1994": 3458,
      "ĠAssociation": 3459,
      "cles": 3460,
      "verse": 3461,
      "lected": 3462,
      "Ġheav": 3463,
      "Ġdiss": 3464,
      "Ch": 3465,
      "ĠTwo": 3466,
      "Ġastron": 3467,
      "ĠMichael": 3468,
      "Ġalle": 3469,
      "Ġbreak": 3470,
      "inent": 3471,
      "osing": 3472,
      "phas": 3473,
      "Ġrelatively": 3474,
      "ĠAut": 3475,
      "Ġ22": 3476,
      "opher": 3477,
      "thes": 3478,
      "Ġdouble": 3479,
      "Ġbank": 3480,
      "oles": 3481,
      "193": 3482,
      "ferred": 3483,
      "ĠIslam": 3484,
      "unt": 3485,
      "Ġdisplay": 3486,
      "Ġmatter": 3487,
      "ĠRevolution": 3488,
      "Ġdraw": 3489,
      "ĠRussia": 3490,
      "ĠInstitute": 3491,
      "Ġ()": 3492,
      "Ġconserv": 3493,
      "Ġislands": 3494,
      "ĠDNA": 3495,
      "omy": 3496,
      "Ġdisp": 3497,
      "rical": 3498,
      "ĠDou": 3499,
      "Ġwhole": 3500,
      "ĠAcademy": 3501,
      "ĠCub": 3502,
      "Ġflu": 3503,
      "rich": 3504,
      "Ġdrug": 3505,
      "ĠConstant": 3506,
      "Ġ27": 3507,
      "Ġmemory": 3508,
      "aling": 3509,
      "Ġlatter": 3510,
      "back": 3511,
      "Ġ/": 3512,
      "Ġ1992": 3513,
      "ĠIII": 3514,
      "Ġsense": 3515,
      "60": 3516,
      "actions": 3517,
      "Ġthreat": 3518,
      "Ġtroops": 3519,
      "raction": 3520,
      "Ġfle": 3521,
      "Ġsens": 3522,
      "ĠScot": 3523,
      "Ġreform": 3524,
      "ĠOx": 3525,
      "hood": 3526,
      "well": 3527,
      "ĠMer": 3528,
      "ĠMartin": 3529,
      "Ġneigh": 3530,
      "Ġissues": 3531,
      "edy": 3532,
      "Ġstage": 3533,
      "Ġ28": 3534,
      "Ġstatus": 3535,
      "ologist": 3536,
      "hold": 3537,
      "pped": 3538,
      "wide": 3539,
      "Ġcontrast": 3540,
      "Ġspect": 3541,
      "aled": 3542,
      "Ġsal": 3543,
      "Ġ183": 3544,
      "cean": 3545,
      "Ġactress": 3546,
      "Ġfell": 3547,
      "ointed": 3548,
      "part": 3549,
      "Ġmakes": 3550,
      "Ġhyp": 3551,
      "gl": 3552,
      "ĠHum": 3553,
      "Ġincor": 3554,
      "Ġmention": 3555,
      "vey": 3556,
      "Ġkeep": 3557,
      "aud": 3558,
      "Ġlink": 3559,
      "Ġdivided": 3560,
      "Ġcollection": 3561,
      "Ġax": 3562,
      "ounds": 3563,
      "ĠGovernment": 3564,
      "ech": 3565,
      "uments": 3566,
      "annel": 3567,
      "stein": 3568,
      "Ġtransm": 3569,
      "Ġprimarily": 3570,
      "bre": 3571,
      "Ġtreatment": 3572,
      "Ġ1995": 3573,
      "Ġriver": 3574,
      "ĠCompany": 3575,
      "riage": 3576,
      "Ġlook": 3577,
      "Ġstep": 3578,
      "Ġterritory": 3579,
      "ĠJews": 3580,
      "onent": 3581,
      "Ġdone": 3582,
      "Ġrare": 3583,
      "oz": 3584,
      "Ġweap": 3585,
      "Ġ1993": 3586,
      "Ġwind": 3587,
      "Ġnearly": 3588,
      "rovers": 3589,
      "Ġbroadcast": 3590,
      "Ġanimals": 3591,
      "Ġec": 3592,
      "ĠInt": 3593,
      "Ġmainly": 3594,
      "tar": 3595,
      "Ġimmedi": 3596,
      "Ġsuggested": 3597,
      "Ġhit": 3598,
      "Ġ1991": 3599,
      "Ġclaimed": 3600,
      "den": 3601,
      "ĠDis": 3602,
      "Ġkind": 3603,
      "Ġappears": 3604,
      "itors": 3605,
      "urches": 3606,
      "Ġdemonst": 3607,
      "ĪĴ": 3608,
      "Ġquick": 3609,
      "Ġworked": 3610,
      "Ġchanged": 3611,
      "Ġcontem": 3612,
      "Ġlegisl": 3613,
      "Ġapproach": 3614,
      "ĠCa": 3615,
      "Ġbenef": 3616,
      "Ġdaughter": 3617,
      "Ġissue": 3618,
      "inem": 3619,
      "Ġdate": 3620,
      "Ġpattern": 3621,
      "Ġdim": 3622,
      "ĠMem": 3623,
      "Ġlocation": 3624,
      "itation": 3625,
      "Ġenough": 3626,
      "ĠNorthern": 3627,
      "Ġequival": 3628,
      "Ġprior": 3629,
      "ya": 3630,
      "ĠTele": 3631,
      "ĠAlbert": 3632,
      "ĠMary": 3633,
      "ĠWhite": 3634,
      "Ġnation": 3635,
      "rif": 3636,
      "Ġconstitution": 3637,
      "Ġfamous": 3638,
      "Ġmarried": 3639,
      "level": 3640,
      "astic": 3641,
      "Ġaccom": 3642,
      "Ġwide": 3643,
      "inet": 3644,
      "Ġour": 3645,
      "fl": 3646,
      "ĠEth": 3647,
      "ĠRel": 3648,
      "ĠCap": 3649,
      "Ġthous": 3650,
      "Ġdegree": 3651,
      "ĠCur": 3652,
      "Ġedition": 3653,
      "itz": 3654,
      "Ġproperty": 3655,
      "azine": 3656,
      "Ġbur": 3657,
      "Ġlett": 3658,
      "Ġevolution": 3659,
      "Ġwall": 3660,
      "Ġdisease": 3661,
      "Ġresour": 3662,
      "Ġobjects": 3663,
      "Ġcomplet": 3664,
      "ĠJoseph": 3665,
      "Ġsaf": 3666,
      "Ġconstant": 3667,
      "Ġresulting": 3668,
      "Ġhous": 3669,
      "Ġcarry": 3670,
      "ned": 3671,
      "Ġ1989": 3672,
      "Ġequal": 3673,
      "nic": 3674,
      "Ġscientific": 3675,
      "west": 3676,
      "ask": 3677,
      "Ġprovides": 3678,
      "estival": 3679,
      "ampionship": 3680,
      "bl": 3681,
      "ato": 3682,
      "rier": 3683,
      "Ġbond": 3684,
      "ocal": 3685,
      "ĠCommon": 3686,
      "ĠMass": 3687,
      "iques": 3688,
      "Ġult": 3689,
      "ĠSaint": 3690,
      "ĠBul": 3691,
      "Ġcompared": 3692,
      "Ġsoon": 3693,
      "iated": 3694,
      "rupt": 3695,
      "Ġships": 3696,
      "Ġapplied": 3697,
      "Ġquestion": 3698,
      "ensus": 3699,
      "ĠLeg": 3700,
      "Ġsurround": 3701,
      "Ġexperience": 3702,
      "Ġfemale": 3703,
      "igr": 3704,
      "Ġderived": 3705,
      "war": 3706,
      "ĠJer": 3707,
      "Ġveh": 3708,
      "overy": 3709,
      "amm": 3710,
      "ĠChic": 3711,
      "Ġvalues": 3712,
      "Ġletters": 3713,
      "Ġpoor": 3714,
      "Ġactivity": 3715,
      "ĠUnder": 3716,
      "Ġmove": 3717,
      "ĠCenter": 3718,
      "Ġcontract": 3719,
      "reng": 3720,
      "ĠGreece": 3721,
      "aught": 3722,
      "Ġsimple": 3723,
      "ĠKn": 3724,
      "Ġcompar": 3725,
      "Ġliterature": 3726,
      "Ġaspect": 3727,
      "throp": 3728,
      "ĠModern": 3729,
      "istry": 3730,
      "ĠRom": 3731,
      "Ġboard": 3732,
      "ĠJud": 3733,
      "Ġship": 3734,
      "ogen": 3735,
      "Ġscript": 3736,
      "ibly": 3737,
      "Ġblue": 3738,
      "Ġinitial": 3739,
      "Ġcompleted": 3740,
      "Ġparties": 3741,
      "Ġmachine": 3742,
      "Ġstars": 3743,
      "ĠSun": 3744,
      "alle": 3745,
      "Ġclassical": 3746,
      "Ġu": 3747,
      "Ġprograms": 3748,
      "van": 3749,
      "Ġtaking": 3750,
      "ada": 3751,
      "Ġspread": 3752,
      "Ġassum": 3753,
      "OS": 3754,
      "ĠBrown": 3755,
      "Ġweek": 3756,
      "Ġcreation": 3757,
      "ĠJesus": 3758,
      "cel": 3759,
      "Ġplants": 3760,
      "embly": 3761,
      "CA": 3762,
      "Ã¨": 3763,
      "Ġinj": 3764,
      "ĠKe": 3765,
      "Ġsus": 3766,
      "rd": 3767,
      "Â°": 3768,
      "Ġwestern": 3769,
      "ĠDiv": 3770,
      "aker": 3771,
      "ĠOrthodox": 3772,
      "Ġbr": 3773,
      "Ġinfluenced": 3774,
      "Ġrepresented": 3775,
      "Ġneeded": 3776,
      "Ġsettle": 3777,
      "ensity": 3778,
      "Ġpaper": 3779,
      "ansion": 3780,
      "board": 3781,
      "Ġ1986": 3782,
      "itan": 3783,
      "Ġimpact": 3784,
      "Ġcarried": 3785,
      "stitution": 3786,
      "usion": 3787,
      "ĠNot": 3788,
      "ĠScience": 3789,
      "Ġprobably": 3790,
      "earch": 3791,
      "Ġformal": 3792,
      "Ġwriter": 3793,
      "Ġjoined": 3794,
      "see": 3795,
      "gebra": 3796,
      "Ġphilosophy": 3797,
      "Ġrapid": 3798,
      "ĠVict": 3799,
      "ĠCup": 3800,
      "Ġcentre": 3801,
      "Ġmusical": 3802,
      "arent": 3803,
      "Ġreaction": 3804,
      "za": 3805,
      "ordin": 3806,
      "Ġliber": 3807,
      "Ġx": 3808,
      "ĠPet": 3809,
      "Ġflag": 3810,
      "Ġcomposer": 3811,
      "ares": 3812,
      "eder": 3813,
      "with": 3814,
      "ixed": 3815,
      "ĠPre": 3816,
      "Ġsimply": 3817,
      "ala": 3818,
      "ĠTV": 3819,
      "Ġrot": 3820,
      "head": 3821,
      "ĠServ": 3822,
      "ternet": 3823,
      "Ġnoted": 3824,
      "ghan": 3825,
      "ena": 3826,
      "mas": 3827,
      "edom": 3828,
      "yer": 3829,
      "Ġemb": 3830,
      "Ġtable": 3831,
      "ĠNA": 3832,
      "igen": 3833,
      "Ġshot": 3834,
      "Ġdivision": 3835,
      "ĠFollow": 3836,
      "Ġ1985": 3837,
      "Ġprofessional": 3838,
      "ĠAthe": 3839,
      "Ġreference": 3840,
      "Ġpil": 3841,
      "Ġdirection": 3842,
      "ĠBest": 3843,
      "ĠBec": 3844,
      "Ġpositive": 3845,
      "Ġbasic": 3846,
      "Ġaccepted": 3847,
      "Ġnuclear": 3848,
      "Ġstories": 3849,
      "ĠCam": 3850,
      "ĠPublic": 3851,
      "ump": 3852,
      "Ġbehind": 3853,
      "lection": 3854,
      "ĠBBC": 3855,
      "Ġability": 3856,
      "rison": 3857,
      "onn": 3858,
      "Ġdram": 3859,
      "Ġintended": 3860,
      "use": 3861,
      "irm": 3862,
      "Ġfederal": 3863,
      "ĠBill": 3864,
      "Ġatom": 3865,
      "Ġ1930": 3866,
      "Ġtend": 3867,
      "odies": 3868,
      "Ġcomposed": 3869,
      "Ġartists": 3870,
      "ias": 3871,
      "Ġesc": 3872,
      "Ġindividuals": 3873,
      "tical": 3874,
      "ĠMil": 3875,
      "wor": 3876,
      "ĠDespite": 3877,
      "comp": 3878,
      "enh": 3879,
      "ĠAnn": 3880,
      "unk": 3881,
      "ĠLord": 3882,
      "Ġcollect": 3883,
      "Ġcontrovers": 3884,
      "Ġdecision": 3885,
      "ĠMuslim": 3886,
      "ĠChicago": 3887,
      "Ġalph": 3888,
      "Ġteams": 3889,
      "Ġ1984": 3890,
      "Ġsigned": 3891,
      "Ġhapp": 3892,
      "iance": 3893,
      "Ġagricult": 3894,
      "which": 3895,
      "Ġautom": 3896,
      "rm": 3897,
      "Ġrace": 3898,
      "Ġrepe": 3899,
      "Ġmedical": 3900,
      "Ġpossess": 3901,
      "ĠSol": 3902,
      "27": 3903,
      "ils": 3904,
      "Ġreduced": 3905,
      "Ġindependence": 3906,
      "iform": 3907,
      "Ġheavy": 3908,
      "Ġpresence": 3909,
      "Ġaddress": 3910,
      "Ġmaterials": 3911,
      "Ġdecre": 3912,
      "Ġopened": 3913,
      "estic": 3914,
      "ĠGra": 3915,
      "Ġwood": 3916,
      "ĠChe": 3917,
      "Ġarran": 3918,
      "ĠThat": 3919,
      "undred": 3920,
      "ented": 3921,
      "ĠGroup": 3922,
      "Ġrisk": 3923,
      "ĠSen": 3924,
      "ying": 3925,
      "ĠStreet": 3926,
      "Ġdecided": 3927,
      "Ġauthority": 3928,
      "ĠBab": 3929,
      "Ġ1982": 3930,
      "Ġearth": 3931,
      "Ġcrew": 3932,
      "ville": 3933,
      "Ġinh": 3934,
      "Ġsection": 3935,
      "ĠThus": 3936,
      "Ġtraining": 3937,
      "ĠFollowing": 3938,
      "Ġforced": 3939,
      "Ġyet": 3940,
      "Ġreligion": 3941,
      "ĠCounty": 3942,
      "Ġflight": 3943,
      "Ġearliest": 3944,
      "Ġmess": 3945,
      "Ġreject": 3946,
      "ĠJust": 3947,
      "ĠBecause": 3948,
      "cher": 3949,
      "rect": 3950,
      "lym": 3951,
      "ĠOrgan": 3952,
      "Ġimage": 3953,
      "rief": 3954,
      "Ġmoney": 3955,
      "Ġconsists": 3956,
      "Ġpron": 3957,
      "Ġdirected": 3958,
      "edic": 3959,
      "ĠDr": 3960,
      "Ġ29": 3961,
      "ested": 3962,
      "Ġpassed": 3963,
      "Ġmanager": 3964,
      "Ġsubs": 3965,
      "Ġargued": 3966,
      "ĠBi": 3967,
      "ograp": 3968,
      "Ġinterpret": 3969,
      "Ġstreng": 3970,
      "Ġvill": 3971,
      "ider": 3972,
      "cular": 3973,
      "ĠMad": 3974,
      "Ġcand": 3975,
      "ĠBank": 3976,
      "ĠPac": 3977,
      "Ġonline": 3978,
      "Ġtarget": 3979,
      "ĠLiber": 3980,
      "elt": 3981,
      "Ġexhib": 3982,
      "Ġclimate": 3983,
      "Ġglobal": 3984,
      "ĠLife": 3985,
      "pr": 3986,
      "Ġir": 3987,
      "Ġcitizens": 3988,
      "col": 3989,
      "Ġinvestig": 3990,
      "oke": 3991,
      "anta": 3992,
      "ographic": 3993,
      "gent": 3994,
      "Ġalc": 3995,
      "ĠSuper": 3996,
      "Ġfif": 3997,
      "Ġexamples": 3998,
      "ĠDi": 3999,
      "Ġsongs": 4000,
      "ĠBern": 4001,
      "Ġround": 4002,
      "ĠOxford": 4003,
      "atur": 4004,
      "ube": 4005,
      "ĠAdd": 4006,
      "Ġhumans": 4007,
      "\"),": 4008,
      "Ġ1920": 4009,
      "fect": 4010,
      "Ġ1979": 4011,
      "Ġengineering": 4012,
      "Ġnormal": 4013,
      "Ġshare": 4014,
      "Ġspirit": 4015,
      "Ġextended": 4016,
      "Ġbehavior": 4017,
      "rents": 4018,
      "Ġnight": 4019,
      "ĠBal": 4020,
      "Ġplaying": 4021,
      "Ġ1940": 4022,
      "lict": 4023,
      "Ġappointed": 4024,
      "Ġbass": 4025,
      "Ġlands": 4026,
      "Ġ1972": 4027,
      "ĠEdward": 4028,
      "ĠYear": 4029,
      "ĠScottish": 4030,
      "Ġ1983": 4031,
      "Ġidentified": 4032,
      "icted": 4033,
      "rey": 4034,
      "oura": 4035,
      "ĠBoth": 4036,
      "Ġsecret": 4037,
      "sen": 4038,
      "Ã¤": 4039,
      "ĠBat": 4040,
      "Ġallows": 4041,
      "Ġrespectively": 4042,
      "Ġeffic": 4043,
      "Ġexistence": 4044,
      "Ġresponsible": 4045,
      "rown": 4046,
      "Ġcharge": 4047,
      "onia": 4048,
      "Ġbomb": 4049,
      "izes": 4050,
      "Ġpreviously": 4051,
      "arter": 4052,
      "Ġmur": 4053,
      "sw": 4054,
      "cluding": 4055,
      "Ġinternal": 4056,
      "enth": 4057,
      "Ġdeep": 4058,
      "iled": 4059,
      "ĠDar": 4060,
      "90": 4061,
      "Ġsubst": 4062,
      "ilies": 4063,
      "Ġtakes": 4064,
      "ĠSouthern": 4065,
      "Ġpeace": 4066,
      "Ġbillion": 4067,
      "gram": 4068,
      "Ġ1987": 4069,
      "ault": 4070,
      "Ġdistance": 4071,
      "Ġfrequently": 4072,
      "aper": 4073,
      "ĠDist": 4074,
      "Ġ1974": 4075,
      "ĠTechn": 4076,
      "Ġincorpor": 4077,
      "iplom": 4078,
      "Ġphen": 4079,
      "ĠLater": 4080,
      "illed": 4081,
      "zech": 4082,
      "ĠBerlin": 4083,
      "ĠAfghan": 4084,
      "ĠSub": 4085,
      "Ġpreserv": 4086,
      "Ġended": 4087,
      "Ġsymbol": 4088,
      "Ġreve": 4089,
      "Ġthink": 4090,
      "racy": 4091,
      "ĠAlf": 4092,
      "Ġdistribution": 4093,
      "ĠCast": 4094,
      "Ġ1969": 4095,
      "Ġcombined": 4096,
      "Ġstructures": 4097,
      "ĠMiss": 4098,
      "ĠLibrary": 4099,
      "Ġrise": 4100,
      "Ġfaith": 4101,
      "Ġlif": 4102,
      "Ġcouncil": 4103,
      "ĠGh": 4104,
      "osis": 4105,
      "Ġideas": 4106,
      "Ġblock": 4107,
      "ĠMin": 4108,
      "Ġnucle": 4109,
      "Ġeastern": 4110,
      "Ġrecords": 4111,
      "Ġannual": 4112,
      "ĠBet": 4113,
      "ĠJul": 4114,
      "Ġplaces": 4115,
      "Ġsets": 4116,
      "TA": 4117,
      "wise": 4118,
      "Ġ1988": 4119,
      "Ġgeomet": 4120,
      "Ġborder": 4121,
      "Ġdeaths": 4122,
      "uls": 4123,
      "ully": 4124,
      "yond": 4125,
      "Ġmom": 4126,
      "Ġmodels": 4127,
      "ĠMusic": 4128,
      "Ġfeatured": 4129,
      "light": 4130,
      "Ġice": 4131,
      "Ġflow": 4132,
      "ĠCorn": 4133,
      "Ġemphas": 4134,
      "Ġfailed": 4135,
      "ita": 4136,
      "Ġmedic": 4137,
      "Ġalternative": 4138,
      "ĠColumbia": 4139,
      "Ġdistingu": 4140,
      "70": 4141,
      "Ġlic": 4142,
      "Ġchief": 4143,
      "Ġimpl": 4144,
      "Ġ1981": 4145,
      "Ġbaseball": 4146,
      "rine": 4147,
      "ĠSever": 4148,
      "Ġbuildings": 4149,
      "ĠDire": 4150,
      "Ġbecoming": 4151,
      "Ġnecessary": 4152,
      "Ġpurch": 4153,
      "Ġdeclared": 4154,
      "Ġ:": 4155,
      "Ġolder": 4156,
      "ĠEc": 4157,
      "Ġ60": 4158,
      "Ġprin": 4159,
      "Ġ1975": 4160,
      "Ġoperating": 4161,
      "Ġindustrial": 4162,
      "Ġregional": 4163,
      "Ġdepend": 4164,
      "comm": 4165,
      "Ġvary": 4166,
      "obile": 4167,
      "Ġexperim": 4168,
      "Ġinn": 4169,
      "Ġmaxim": 4170,
      "aters": 4171,
      "Ġ180": 4172,
      "vert": 4173,
      "Ġactivities": 4174,
      "ĠCamp": 4175,
      "Ġtechniques": 4176,
      "ĠSir": 4177,
      "Ġetc": 4178,
      "Ġ1971": 4179,
      "28": 4180,
      "Ġey": 4181,
      "ĠOper": 4182,
      "aland": 4183,
      "Ġoccurs": 4184,
      "ĠÂ": 4185,
      "oken": 4186,
      "ĠAngel": 4187,
      "FA": 4188,
      "ua": 4189,
      "Ġ1976": 4190,
      "ĠCarl": 4191,
      "Ġcart": 4192,
      "Ġhours": 4193,
      "ructed": 4194,
      "Ġfigure": 4195,
      "Ġinitially": 4196,
      "Ġessential": 4197,
      "Ġdead": 4198,
      "bour": 4199,
      "oud": 4200,
      "Ġmatch": 4201,
      "Ġexpressed": 4202,
      "Ġmarriage": 4203,
      "ĠSocial": 4204,
      "Ġconne": 4205,
      "ĠTurk": 4206,
      "ĠGo": 4207,
      "Ġremaining": 4208,
      "Ġ1945": 4209,
      "Ġfriend": 4210,
      "tra": 4211,
      "ev": 4212,
      "amental": 4213,
      "Ġgreen": 4214,
      "ĠEconom": 4215,
      "ĠMa": 4216,
      "umin": 4217,
      "icit": 4218,
      "Ġsecurity": 4219,
      "ĠVictor": 4220,
      "ĠTra": 4221,
      "anda": 4222,
      "ieval": 4223,
      "Ġbelieve": 4224,
      "Ġut": 4225,
      "ĠCommission": 4226,
      "Ġoffered": 4227,
      "Ġspl": 4228,
      "Ġcomment": 4229,
      "35": 4230,
      "Ġbig": 4231,
      "Ġmyth": 4232,
      "Ġbring": 4233,
      "ĠTom": 4234,
      "ĠCzech": 4235,
      "Ġ1978": 4236,
      "asy": 4237,
      "Ġreign": 4238,
      "ĠFort": 4239,
      "Ġ1968": 4240,
      "SC": 4241,
      "ĠAlso": 4242,
      "ĠBell": 4243,
      "km": 4244,
      "ighter": 4245,
      "ender": 4246,
      "ĠApple": 4247,
      "Ġpun": 4248,
      "ĠJean": 4249,
      "Ġadj": 4250,
      "Ġelections": 4251,
      "ĠMont": 4252,
      "ĠDepartment": 4253,
      "Ġmut": 4254,
      "ĠNations": 4255,
      "26": 4256,
      "Ġlived": 4257,
      "Ġcoal": 4258,
      "irds": 4259,
      "ĠPrince": 4260,
      "oration": 4261,
      "Ġbor": 4262,
      "ĠTheir": 4263,
      "ĠGr": 4264,
      "Ġprison": 4265,
      "Ġdeal": 4266,
      "Ġcontent": 4267,
      "Ġcondition": 4268,
      "Ġwin": 4269,
      "ĠSo": 4270,
      "anning": 4271,
      "Ġheart": 4272,
      "Ġreserv": 4273,
      "eds": 4274,
      "Ġrefers": 4275,
      "Ġquickly": 4276,
      "ĠKar": 4277,
      "Ġcontext": 4278,
      "Ġrecon": 4279,
      "Ġarticle": 4280,
      "Ġmonth": 4281,
      "Ġmiddle": 4282,
      "Ġexpansion": 4283,
      "Ġappearance": 4284,
      "eff": 4285,
      "Ġresulted": 4286,
      "Ġslow": 4287,
      "Ġbatt": 4288,
      "erman": 4289,
      "unicip": 4290,
      "Ġfuel": 4291,
      "Ġdespite": 4292,
      "Ġeffective": 4293,
      "Ġfields": 4294,
      "gency": 4295,
      "Ġorganization": 4296,
      "Ġunc": 4297,
      "Ġapplications": 4298,
      "Ġsequence": 4299,
      "ĠPacific": 4300,
      "Ġversions": 4301,
      "zz": 4302,
      "Ġpowers": 4303,
      "ois": 4304,
      "Ġcoach": 4305,
      "Ġinstance": 4306,
      "Ġpresented": 4307,
      "Ġclaims": 4308,
      "Ġobserved": 4309,
      "Ġfiction": 4310,
      "Ġ1973": 4311,
      "Ġcurrently": 4312,
      "Ġdigital": 4313,
      "Ġnegative": 4314,
      "song": 4315,
      "Ġavoid": 4316,
      "ĠNob": 4317,
      "Ġsac": 4318,
      "Ġchlor": 4319,
      "Ġclosed": 4320,
      "elligence": 4321,
      "band": 4322,
      "ĠTest": 4323,
      "Ġamb": 4324,
      "opl": 4325,
      "Ġbecomes": 4326,
      "more": 4327,
      "ali": 4328,
      "ifically": 4329,
      "Ġallowing": 4330,
      "29": 4331,
      "ublican": 4332,
      "\").": 4333,
      "Ġconqu": 4334,
      "ĠCroat": 4335,
      "ressive": 4336,
      "ĠCambridge": 4337,
      "Ġthings": 4338,
      "ĠMag": 4339,
      "Ġroad": 4340,
      "Ġentered": 4341,
      "EC": 4342,
      "In": 4343,
      "Ġdrum": 4344,
      "ado": 4345,
      "oting": 4346,
      "Ġexc": 4347,
      "ĠOtt": 4348,
      "Ġaim": 4349,
      "Ġchurches": 4350,
      "Ġhistorian": 4351,
      "ĠRob": 4352,
      "Ġsexual": 4353,
      "Ġdescript": 4354,
      "Ġmis": 4355,
      "Ġoperation": 4356,
      "uis": 4357,
      "ygen": 4358,
      "lymp": 4359,
      "vement": 4360,
      "Ġmicro": 4361,
      "Ġdon": 4362,
      "ĠTor": 4363,
      "Ġconv": 4364,
      "Ġcontaining": 4365,
      "Ġtrack": 4366,
      "acing": 4367,
      "IC": 4368,
      "uge": 4369,
      "ĠScotland": 4370,
      "Ġcourse": 4371,
      "Ġweight": 4372,
      "where": 4373,
      "Ġquality": 4374,
      "Ġissued": 4375,
      "heast": 4376,
      "ani": 4377,
      "Ġconsequ": 4378,
      "ĠRail": 4379,
      "Ġneut": 4380,
      "Ġscale": 4381,
      "Ġagreement": 4382,
      "Ġfavor": 4383,
      "Ġnotable": 4384,
      "ception": 4385,
      "ĠAlexand": 4386,
      "Ġhol": 4387,
      "Ġcapac": 4388,
      "Ġconflict": 4389,
      "ĠPolish": 4390,
      "ipment": 4391,
      "ĠAv": 4392,
      "Ġhundred": 4393,
      "ĠPop": 4394,
      "Ġopposed": 4395,
      "Ġillust": 4396,
      "Ġnative": 4397,
      "ĠNic": 4398,
      "sec": 4399,
      "Ġprocesses": 4400,
      "ĠPrime": 4401,
      "Ġlabor": 4402,
      "oper": 4403,
      "urt": 4404,
      "Ġexpected": 4405,
      "inger": 4406,
      "anguage": 4407,
      "ĠPhilos": 4408,
      "ĠOlymp": 4409,
      "ĠPolit": 4410,
      "Ġresources": 4411,
      "Ġchrom": 4412,
      "su": 4413,
      "Ġalgebra": 4414,
      "ĠOp": 4415,
      "Ġheat": 4416,
      "Ġcontribut": 4417,
      "such": 4418,
      "Ġdiam": 4419,
      "Ġsoldiers": 4420,
      "ĠResearch": 4421,
      "Ġconnected": 4422,
      "Ġqual": 4423,
      "Ġlaunched": 4424,
      "47": 4425,
      "formed": 4426,
      "Ġfourth": 4427,
      "Ġcritical": 4428,
      "Ġchall": 4429,
      "asty": 4430,
      "ella": 4431,
      "ĠSecret": 4432,
      "hat": 4433,
      "Ġauth": 4434,
      "Ġexact": 4435,
      "ĠTex": 4436,
      "Ġspeech": 4437,
      "gal": 4438,
      "Ġsport": 4439,
      "ĠZealand": 4440,
      "Ġcer": 4441,
      "ĠOver": 4442,
      "ĠBre": 4443,
      "isted": 4444,
      "Ġcontinue": 4445,
      "Ġprotect": 4446,
      "ĠHung": 4447,
      "Ġextra": 4448,
      "Ġmanagement": 4449,
      "ih": 4450,
      "ĠHow": 4451,
      "Ġcontact": 4452,
      "Ġfactors": 4453,
      "Ġways": 4454,
      "Ġbal": 4455,
      "Ġtex": 4456,
      "Ġactually": 4457,
      "ĠVirgin": 4458,
      "Ġ1977": 4459,
      "ĠHam": 4460,
      "ĠBuddh": 4461,
      "Ġdoct": 4462,
      "Ġ||": 4463,
      "Ġadministration": 4464,
      "Ġconclud": 4465,
      "Ġformula": 4466,
      "Ġcontemporary": 4467,
      "Ġvolume": 4468,
      "Ġcandid": 4469,
      "ls": 4470,
      "rates": 4471,
      "ĠâĢĶ": 4472,
      "ĠBor": 4473,
      "thing": 4474,
      "Ġfollows": 4475,
      "Ġfully": 4476,
      "Ġgoal": 4477,
      "ĠCP": 4478,
      "ĠFer": 4479,
      "Ġlearn": 4480,
      "Ġformation": 4481,
      "Ġvirt": 4482,
      "Ġcat": 4483,
      "Ġund": 4484,
      "ĠPrize": 4485,
      "Ġbrief": 4486,
      "Ġhar": 4487,
      "Ġdiplom": 4488,
      "ĠDomin": 4489,
      "Ġfolk": 4490,
      "ĠChristianity": 4491,
      "agon": 4492,
      "Ġtree": 4493,
      "Ġstra": 4494,
      "Ġoccurred": 4495,
      "ĠTime": 4496,
      "Ġgives": 4497,
      "ĠFour": 4498,
      "190": 4499,
      "Ġsignal": 4500,
      "Ġuniversity": 4501,
      "Ġadvant": 4502,
      "ĠVer": 4503,
      "edia": 4504,
      "Ġslight": 4505,
      "ulate": 4506,
      "osm": 4507,
      "Ġurban": 4508,
      "ership": 4509,
      "ĠKore": 4510,
      "Ġ179": 4511,
      "Ġregarded": 4512,
      "Ġawarded": 4513,
      "atre": 4514,
      "ĠLake": 4515,
      "RA": 4516,
      "Ġremoved": 4517,
      "bur": 4518,
      "encies": 4519,
      "Ġpp": 4520,
      "ken": 4521,
      "iring": 4522,
      "Ġhy": 4523,
      "ĠGeorg": 4524,
      "64": 4525,
      "Ġbox": 4526,
      "Ġmotion": 4527,
      "ng": 4528,
      "aine": 4529,
      "Ġprogramming": 4530,
      "ĠQueen": 4531,
      "Ġserious": 4532,
      "Ġopposition": 4533,
      "Ġnotes": 4534,
      "Ġbacter": 4535,
      "amin": 4536,
      "ĠWall": 4537,
      "Ġ1967": 4538,
      "ĠStand": 4539,
      "ĠHuman": 4540,
      "oven": 4541,
      "Ġprem": 4542,
      "ĠAdm": 4543,
      "Ġsynthes": 4544,
      "Ġdu": 4545,
      "Ġphase": 4546,
      "Ġenem": 4547,
      "ss": 4548,
      "Ġ1966": 4549,
      "Ġsolution": 4550,
      "ĠEach": 4551,
      "Ġvon": 4552,
      "ship": 4553,
      "ket": 4554,
      "osen": 4555,
      "Ġharm": 4556,
      "acc": 4557,
      "water": 4558,
      "Ġmind": 4559,
      "Ġ31": 4560,
      "Ġpurpose": 4561,
      "Ġhot": 4562,
      "ocracy": 4563,
      "aded": 4564,
      "ĠMajor": 4565,
      "Ġcircum": 4566,
      "ĠAmericans": 4567,
      "arsh": 4568,
      "ĠPo": 4569,
      "Ġdark": 4570,
      "Ġsearch": 4571,
      "Ġturned": 4572,
      "ensions": 4573,
      "Ġagreed": 4574,
      "Ġwoman": 4575,
      "Ġfamilies": 4576,
      "othes": 4577,
      "crete": 4578,
      "Ġfriends": 4579,
      "inity": 4580,
      "ĠAC": 4581,
      "Ġserve": 4582,
      "Ġepisode": 4583,
      "Ġlimit": 4584,
      "nce": 4585,
      "ida": 4586,
      "Ġnewsp": 4587,
      "Ġjournalist": 4588,
      "Ġvote": 4589,
      "ĠSeveral": 4590,
      "Ġsummer": 4591,
      "Ġmonarch": 4592,
      "ĠBib": 4593,
      "Ġunique": 4594,
      "ĠChristmas": 4595,
      "ĠDuke": 4596,
      "ĠNews": 4597,
      "Ġcommunities": 4598,
      "Ġprinciple": 4599,
      "ĠUN": 4600,
      "Ġleague": 4601,
      "Ġwave": 4602,
      "Ġreplace": 4603,
      "Ġrecognized": 4604,
      "Ġfigures": 4605,
      "Ġattacks": 4606,
      "Ġ80": 4607,
      "ocks": 4608,
      "ĠArabic": 4609,
      "Ġburn": 4610,
      "isf": 4611,
      "ifying": 4612,
      "Ġinstitutions": 4613,
      "Ġcomes": 4614,
      "char": 4615,
      "rations": 4616,
      "Ġface": 4617,
      "Ġmagazine": 4618,
      "wa": 4619,
      "Ġlingu": 4620,
      "mosp": 4621,
      "Ġgiving": 4622,
      "uese": 4623,
      "ĠMill": 4624,
      "Ġpoly": 4625,
      "pired": 4626,
      "Ġprominent": 4627,
      "ĠAtlantic": 4628,
      "Ġalcoh": 4629,
      "AF": 4630,
      "kins": 4631,
      "Ġbrain": 4632,
      "ĠAge": 4633,
      "ortun": 4634,
      "Ġethnic": 4635,
      "Ġancest": 4636,
      "ening": 4637,
      "ĠCard": 4638,
      "Ġvictory": 4639,
      "Ġequivalent": 4640,
      "Ġalgorithm": 4641,
      "Ġprep": 4642,
      "leg": 4643,
      "Ġdifference": 4644,
      "Ġequipment": 4645,
      "ID": 4646,
      "ĠDet": 4647,
      "ĠInc": 4648,
      "ĠInternet": 4649,
      "Ġinside": 4650,
      "AS": 4651,
      "Ġfarm": 4652,
      "ĠCO": 4653,
      "ĠPope": 4654,
      "Ġparticles": 4655,
      "Ġstarting": 4656,
      "cules": 4657,
      "Ġefforts": 4658,
      "rone": 4659,
      "Ġrelative": 4660,
      "Ġbelong": 4661,
      "lem": 4662,
      "ĠFree": 4663,
      "ĠJac": 4664,
      "Ġcho": 4665,
      "hy": 4666,
      "Ġordered": 4667,
      "ĠBron": 4668,
      "ĠBible": 4669,
      "Ġasked": 4670,
      "Ġ1965": 4671,
      "Ġanimal": 4672,
      "Ġtheorem": 4673,
      "ny": 4674,
      "Ġnomin": 4675,
      "aging": 4676,
      "Ġaccur": 4677,
      "ieties": 4678,
      "igration": 4679,
      "Ġgram": 4680,
      "cient": 4681,
      "ĠSur": 4682,
      "ĠLuc": 4683,
      "ĠHoly": 4684,
      "itable": 4685,
      "ĠĠĠ": 4686,
      "Ġfrequency": 4687,
      "ĠFinland": 4688,
      "rong": 4689,
      "ĠCop": 4690,
      "Ġpaint": 4691,
      "duc": 4692,
      "ĠSqu": 4693,
      "unction": 4694,
      "Ġbranch": 4695,
      "ĠOb": 4696,
      "cycl": 4697,
      "ĠOrder": 4698,
      "Ġmarked": 4699,
      "Ġcompetition": 4700,
      "haps": 4701,
      "ĠEU": 4702,
      "ĠDevelop": 4703,
      "Ġcompletely": 4704,
      "Ġsports": 4705,
      "apers": 4706,
      "Ġoutput": 4707,
      "Ġwrite": 4708,
      "Ġtun": 4709,
      "Ġwebs": 4710,
      "songwriter": 4711,
      "ache": 4712,
      "ĠChristians": 4713,
      "Ġcauses": 4714,
      "Ġdefeated": 4715,
      "Ġspoken": 4716,
      "ĠProtest": 4717,
      "ĠCre": 4718,
      "Ġderiv": 4719,
      "ĠPost": 4720,
      "Ġcommission": 4721,
      "Ġpolice": 4722,
      "ĠMur": 4723,
      "Ġplays": 4724,
      "Ġfixed": 4725,
      "Ġartist": 4726,
      "Ġ)": 4727,
      "osa": 4728,
      "ĠNaz": 4729,
      "Ġ1944": 4730,
      "ĠPlay": 4731,
      "Ġactions": 4732,
      "abeth": 4733,
      "Ġrunning": 4734,
      "iana": 4735,
      "Ġuniverse": 4736,
      "Ġmoment": 4737,
      "ĠFar": 4738,
      "Ġapplication": 4739,
      "ĠCult": 4740,
      "agan": 4741,
      "Ġofficially": 4742,
      "Ġreact": 4743,
      "ĠFinn": 4744,
      "Ġrecomm": 4745,
      "Ġapparent": 4746,
      "anner": 4747,
      "75": 4748,
      "ĠUs": 4749,
      "ogue": 4750,
      "Ġupper": 4751,
      "ds": 4752,
      "equ": 4753,
      "ĠBig": 4754,
      "Ġsuc": 4755,
      "Ġshowed": 4756,
      "Ġdomestic": 4757,
      "vis": 4758,
      "ams": 4759,
      "ĠOut": 4760,
      "Ġidentity": 4761,
      "Ġmurder": 4762,
      "ety": 4763,
      "va": 4764,
      "Ġ1964": 4765,
      "Ġdifferences": 4766,
      "Ġstudent": 4767,
      "Ġhydrogen": 4768,
      "FL": 4769,
      "ancy": 4770,
      "ĠForm": 4771,
      "Ġdevice": 4772,
      "ĠHill": 4773,
      "Ġrang": 4774,
      "Ġcycle": 4775,
      "Ġdescribes": 4776,
      "ĠPan": 4777,
      "orders": 4778,
      "ĠConstitution": 4779,
      "Ġmeeting": 4780,
      "Ġpack": 4781,
      "Ġexchange": 4782,
      "Ġleaving": 4783,
      "Ġdescribe": 4784,
      "ceeded": 4785,
      "urb": 4786,
      "ĠPortuguese": 4787,
      "Ġauthors": 4788,
      "ĠFederal": 4789,
      "Ġ...": 4790,
      "',": 4791,
      "press": 4792,
      "Ġfast": 4793,
      "Ġfactor": 4794,
      "ĠSum": 4795,
      "Ġequation": 4796,
      "Ġpowerful": 4797,
      "Ġsituation": 4798,
      "Ġpoll": 4799,
      "iro": 4800,
      "Ġemperor": 4801,
      "Ġlawyer": 4802,
      "car": 4803,
      "erc": 4804,
      "otion": 4805,
      "herlands": 4806,
      "Ġphenomen": 4807,
      "Ġbeyond": 4808,
      "Ġwithd": 4809,
      "claim": 4810,
      "risis": 4811,
      "Ġanaly": 4812,
      "Ġcustom": 4813,
      "road": 4814,
      "abet": 4815,
      "ĠRadio": 4816,
      "da": 4817,
      "Ġdance": 4818,
      "ĠDig": 4819,
      "Ġspent": 4820,
      "Ġreflect": 4821,
      "Ġrough": 4822,
      "Ġfinally": 4823,
      "eks": 4824,
      "Ġincome": 4825,
      "ĠGame": 4826,
      "ĠWood": 4827,
      "Ġdevices": 4828,
      "Ġinterview": 4829,
      "Ġinstruments": 4830,
      "bury": 4831,
      "Ġprime": 4832,
      "ĠCarol": 4833,
      "oo": 4834,
      "ĠNap": 4835,
      "ĠStep": 4836,
      "Ġelectro": 4837,
      "Ġnine": 4838,
      "ĠArmen": 4839,
      "Ġhelped": 4840,
      "Ġoxygen": 4841,
      "Ġmentioned": 4842,
      "amic": 4843,
      "Ġgreatest": 4844,
      "enes": 4845,
      "Ġgrowing": 4846,
      "Ġdetermined": 4847,
      "ĠBob": 4848,
      "Ġseem": 4849,
      "Ġenter": 4850,
      "force": 4851,
      "ione": 4852,
      "ĠImperial": 4853,
      "ĠGib": 4854,
      "Ġtry": 4855,
      "Ġ1962": 4856,
      "Ġwinn": 4857,
      "ĠTim": 4858,
      "ĠMexico": 4859,
      "ef": 4860,
      "thur": 4861,
      "Ġproced": 4862,
      "Ġtranslation": 4863,
      "Ġroy": 4864,
      "Ġtold": 4865,
      "Ġrecently": 4866,
      "Ġ1942": 4867,
      "ĠAmong": 4868,
      "ĠForeign": 4869,
      "rence": 4870,
      "Ġparalle": 4871,
      "akistan": 4872,
      "Ġdecades": 4873,
      "Ġdedic": 4874,
      "Ġimportance": 4875,
      "yr": 4876,
      "Ġcomponents": 4877,
      "ĠRock": 4878,
      "Ġproved": 4879,
      "Ġatoms": 4880,
      "ologists": 4881,
      "la": 4882,
      "Ġmill": 4883,
      "ĠBase": 4884,
      "ĠLand": 4885,
      "ading": 4886,
      "Ġtexts": 4887,
      "Ġwanted": 4888,
      "Ġfort": 4889,
      "rust": 4890,
      "onym": 4891,
      "Ġconvers": 4892,
      "Ġextrem": 4893,
      "Ġratio": 4894,
      "ĠDivision": 4895,
      "nam": 4896,
      "ĠFound": 4897,
      "Ġadult": 4898,
      "ĠMel": 4899,
      "Ġsomething": 4900,
      "ĠConserv": 4901,
      "arters": 4902,
      "Ġelectronic": 4903,
      "ĠSeries": 4904,
      "no": 4905,
      "iling": 4906,
      "Ġexclus": 4907,
      "Ġsignificantly": 4908,
      "86": 4909,
      "vant": 4910,
      "Ġmeant": 4911,
      "ĠWal": 4912,
      "Ġsector": 4913,
      "ropol": 4914,
      "acher": 4915,
      "Ġgenetic": 4916,
      "Ġcam": 4917,
      "Ġlove": 4918,
      "Ġoldest": 4919,
      "poration": 4920,
      "Ġcombination": 4921,
      "ĠDanish": 4922,
      "Ġprotection": 4923,
      "99": 4924,
      "Ġworldwide": 4925,
      "Ġgained": 4926,
      "ellow": 4927,
      "ĠYoung": 4928,
      "Ġrain": 4929,
      "Ġpositions": 4930,
      "lines": 4931,
      "Ġgrand": 4932,
      "Ġproport": 4933,
      "Ġreduce": 4934,
      "Ġimmediately": 4935,
      "ĠHel": 4936,
      "lies": 4937,
      "ĠTod": 4938,
      "Ġpair": 4939,
      "ĠSup": 4940,
      "ĠFoot": 4941,
      "ĠEliz": 4942,
      "aily": 4943,
      "greg": 4944,
      "Ġdra": 4945,
      "ĠInst": 4946,
      "cop": 4947,
      "stra": 4948,
      "ĠAlban": 4949,
      "Ġ1963": 4950,
      "Ġminutes": 4951,
      "Ġunderstanding": 4952,
      "ĠBos": 4953,
      "Ġstor": 4954,
      "add": 4955,
      "Ġsec": 4956,
      "Ġliqu": 4957,
      "ĠCommittee": 4958,
      "Ġglass": 4959,
      "king": 4960,
      "Ġstations": 4961,
      "Ġcompounds": 4962,
      "Ġmoving": 4963,
      "Ġatmosp": 4964,
      "aped": 4965,
      "SM": 4966,
      "Ġinput": 4967,
      "Ġdro": 4968,
      "ĠSk": 4969,
      "irmed": 4970,
      "Ġenvironmental": 4971,
      "Ġsubsequent": 4972,
      "ĠArgent": 4973,
      "isco": 4974,
      "uan": 4975,
      "uated": 4976,
      "âĪĴ": 4977,
      "Ġsays": 4978,
      "ĠMilitary": 4979,
      "Ġoverall": 4980,
      "Ġfundamental": 4981,
      "Ġsquare": 4982,
      "ĠChap": 4983,
      "Ġexperiment": 4984,
      "Ġdoub": 4985,
      "ĠIran": 4986,
      "ĠMos": 4987,
      "Ġclasses": 4988,
      "Ġsen": 4989,
      "uther": 4990,
      "Ġrequires": 4991,
      "Ġones": 4992,
      "Ġcapacity": 4993,
      "Ġattention": 4994,
      "iced": 4995,
      "ulpt": 4996,
      "ĠAnton": 4997,
      "Ġlinear": 4998,
      "Ġ35": 4999,
      "Ġ1961": 5000,
      "Ġ1948": 5001,
      "65": 5002,
      "ĠMo": 5003,
      "ĠGDP": 5004,
      "Ġsimpl": 5005,
      "Ġweapons": 5006,
      "Ġple": 5007,
      "Ġraised": 5008,
      "85": 5009,
      "ĠGall": 5010,
      "Ã§": 5011,
      "Ġnor": 5012,
      "ĠJim": 5013,
      "AC": 5014,
      "oston": 5015,
      "Ġarchitecture": 5016,
      "Ġsites": 5017,
      "Ġfair": 5018,
      "rea": 5019,
      "Ġreach": 5020,
      "Ġparliament": 5021,
      "Ġfish": 5022,
      "icon": 5023,
      "Ġprovin": 5024,
      "iral": 5025,
      "iop": 5026,
      "Ġextensive": 5027,
      "Ġsubsequently": 5028,
      "Ġattempted": 5029,
      "Ġgrew": 5030,
      "Ġnit": 5031,
      "Ġcomputers": 5032,
      "Ġcreating": 5033,
      "Ġinstrument": 5034,
      "ishes": 5035,
      "ologies": 5036,
      "azz": 5037,
      "ĠBow": 5038,
      "Ġvow": 5039,
      "Ġjur": 5040,
      "Ġcorrect": 5041,
      "enger": 5042,
      "ĠCD": 5043,
      "Ġgal": 5044,
      "oned": 5045,
      "ospital": 5046,
      "ĠNetherlands": 5047,
      "Ġjob": 5048,
      "Ġ;": 5049,
      "âĢĿ": 5050,
      "ĠOl": 5051,
      "ĠUp": 5052,
      "Ġplanned": 5053,
      "cons": 5054,
      "Ġsuggests": 5055,
      "ĠStan": 5056,
      "ĠOf": 5057,
      "Ġprovince": 5058,
      "mann": 5059,
      "Ġtransfer": 5060,
      "Ġtheories": 5061,
      "Ġ70": 5062,
      "Ġorganizations": 5063,
      "ĠCost": 5064,
      "Ġviews": 5065,
      "Ġuniform": 5066,
      "Ġshape": 5067,
      "Ġinspired": 5068,
      "Ġachieved": 5069,
      "Ġpal": 5070,
      "ĠDemocratic": 5071,
      "Ġbodies": 5072,
      "ĠWind": 5073,
      "imin": 5074,
      "class": 5075,
      "ĠAsh": 5076,
      "ĠAirport": 5077,
      "ĠTreaty": 5078,
      "eed": 5079,
      "Ġuseful": 5080,
      "Ġiron": 5081,
      "Ġshoot": 5082,
      "Ġminister": 5083,
      "ĠTimes": 5084,
      "ĠWay": 5085,
      "Ġrates": 5086,
      "Ġ1941": 5087,
      "cyclop": 5088,
      "Ġdog": 5089,
      "uration": 5090,
      "ĠInf": 5091,
      "ĠAncient": 5092,
      "Ġshared": 5093,
      "Ġcoordin": 5094,
      "Ġstring": 5095,
      "ĠCross": 5096,
      "Ġelectrons": 5097,
      "enz": 5098,
      "Ġconvent": 5099,
      "ĠLee": 5100,
      "Ġconduct": 5101,
      "ĠNobel": 5102,
      "PS": 5103,
      "ĠTem": 5104,
      "Ġweeks": 5105,
      "range": 5106,
      "angel": 5107,
      "aria": 5108,
      "Ġstudied": 5109,
      "Ġ1958": 5110,
      "Ġattempts": 5111,
      "Ġcontinuous": 5112,
      "point": 5113,
      "oured": 5114,
      "ĠPakistan": 5115,
      "osh": 5116,
      "aij": 5117,
      "Ġrefused": 5118,
      "alism": 5119,
      "ĠRog": 5120,
      "ĠKenn": 5121,
      "ashion": 5122,
      "orter": 5123,
      "Ġminim": 5124,
      "Ġpossibly": 5125,
      "ĠTreaties": 5126,
      "igenous": 5127,
      "Ġreasons": 5128,
      "Ġeasily": 5129,
      "ocol": 5130,
      "ĠUnivers": 5131,
      "ragon": 5132,
      "Ġwealth": 5133,
      "Ġspecifically": 5134,
      "Ġsplit": 5135,
      "ĠThree": 5136,
      "Ġresistance": 5137,
      "also": 5138,
      "Ġdensity": 5139,
      "ĠCel": 5140,
      "Ġcombat": 5141,
      "Ġmaximum": 5142,
      "book": 5143,
      "including": 5144,
      "icy": 5145,
      "Ġmel": 5146,
      "Ġ1947": 5147,
      "Ġsaying": 5148,
      "ĠStar": 5149,
      "Ġruns": 5150,
      "RT": 5151,
      "Ġunknown": 5152,
      "Ġplans": 5153,
      "ructure": 5154,
      "ĠGuine": 5155,
      "ographer": 5156,
      "rec": 5157,
      "ĠCE": 5158,
      "iger": 5159,
      "Ġexpanded": 5160,
      "Ġlisted": 5161,
      "Ġopening": 5162,
      "Ġexpression": 5163,
      "house": 5164,
      "Ġhands": 5165,
      "Ġforward": 5166,
      "ĠLab": 5167,
      "Ġseek": 5168,
      "Ġsubstant": 5169,
      "Ġstandards": 5170,
      "Ġreceive": 5171,
      "uate": 5172,
      "Ġtherm": 5173,
      "ĠBoston": 5174,
      "ĠRepublican": 5175,
      "Ġcopy": 5176,
      "Ġexternal": 5177,
      "ĠChampionship": 5178,
      "Ġnotably": 5179,
      "ĠTexas": 5180,
      "adium": 5181,
      "ceived": 5182,
      "ĠMu": 5183,
      "ĠElizabeth": 5184,
      "ĠDevelopment": 5185,
      "88": 5186,
      "antasy": 5187,
      "Ġdistrict": 5188,
      "Ġsecondary": 5189,
      "hol": 5190,
      "Ġcle": 5191,
      "osph": 5192,
      "Ġsupply": 5193,
      "ĠSpace": 5194,
      "%,": 5195,
      "aph": 5196,
      "Ġcolumn": 5197,
      "Ġelse": 5198,
      "Ġperman": 5199,
      "Ġclosely": 5200,
      "Ġvoice": 5201,
      "Ġchoice": 5202,
      "ĠEle": 5203,
      "Ġscene": 5204,
      "Ġexisting": 5205,
      "ĠBCE": 5206,
      "Ġhonor": 5207,
      "ĠSing": 5208,
      "andom": 5209,
      "Ġgeneration": 5210,
      "67": 5211,
      "itness": 5212,
      "adel": 5213,
      "Ġintroduction": 5214,
      "Ġnob": 5215,
      "ophers": 5216,
      "imens": 5217,
      "Ġfeel": 5218,
      "Ġobtained": 5219,
      "Ġrejected": 5220,
      "Ġwhereas": 5221,
      "Ġweak": 5222,
      "works": 5223,
      "ca": 5224,
      "Ġstatement": 5225,
      "ĠAngl": 5226,
      "ĠCyp": 5227,
      "Ġhere": 5228,
      "ells": 5229,
      "Ġsolid": 5230,
      "isher": 5231,
      "ropri": 5232,
      "Ġtwent": 5233,
      "Ġroyal": 5234,
      "Ġrelation": 5235,
      "ilding": 5236,
      "Ġ1956": 5237,
      "Ġdestroyed": 5238,
      "ĠBah": 5239,
      "ĠArm": 5240,
      "Ġdepending": 5241,
      "Ġwinning": 5242,
      "Ġpure": 5243,
      "ĠFestival": 5244,
      "Ġpropos": 5245,
      "Ġsought": 5246,
      "omorph": 5247,
      "ĠJohnson": 5248,
      "ĠService": 5249,
      "Ġmunicip": 5250,
      "ĠCoast": 5251,
      "89": 5252,
      "ĠJo": 5253,
      "antine": 5254,
      "Ġlear": 5255,
      "Ġrevolution": 5256,
      "Ġincreasingly": 5257,
      "ii": 5258,
      "lar": 5259,
      "Ġpolitics": 5260,
      "Ġmixed": 5261,
      "St": 5262,
      "mat": 5263,
      "ĠAst": 5264,
      "ĠProf": 5265,
      "ĠOrig": 5266,
      "ĠCatal": 5267,
      "ĠArthur": 5268,
      "ette": 5269,
      "ĠVen": 5270,
      "etary": 5271,
      "Ġtranslated": 5272,
      "Ġwear": 5273,
      "rane": 5274,
      "Ġactual": 5275,
      "Ġnews": 5276,
      "cription": 5277,
      "BM": 5278,
      "uses": 5279,
      "Ġgrav": 5280,
      "Ġtoward": 5281,
      "Ġslightly": 5282,
      "Ġvan": 5283,
      "ĠViet": 5284,
      "Ġ1959": 5285,
      "lav": 5286,
      "omew": 5287,
      "Ġfeed": 5288,
      "ĠAfghanistan": 5289,
      "ĠOttoman": 5290,
      "33": 5291,
      "iable": 5292,
      "Ġsides": 5293,
      "Ġstay": 5294,
      "Ġarrived": 5295,
      "uty": 5296,
      "Ġadvantage": 5297,
      "uscript": 5298,
      "Ġmathematic": 5299,
      "rog": 5300,
      "Ġkept": 5301,
      "ĠEduc": 5302,
      "dis": 5303,
      "teen": 5304,
      "Ġproviding": 5305,
      "Ġgovernor": 5306,
      "ipped": 5307,
      "Ġgranted": 5308,
      "ĠHaw": 5309,
      "ĠOcean": 5310,
      "Ġsculpt": 5311,
      "Ġcontrolled": 5312,
      "ĠIslamic": 5313,
      "45": 5314,
      "term": 5315,
      "Ġlaunch": 5316,
      "Ġphr": 5317,
      "Ġcerem": 5318,
      "ĠSil": 5319,
      "ĠDev": 5320,
      "BS": 5321,
      "Ġliterary": 5322,
      "ĠGre": 5323,
      "ĠLos": 5324,
      "active": 5325,
      "Ġpainter": 5326,
      "Ġnegot": 5327,
      "Ġnations": 5328,
      "ĠMinist": 5329,
      "Ġacts": 5330,
      "Ġcycl": 5331,
      "Ġorbit": 5332,
      "lywood": 5333,
      "usal": 5334,
      "ĠBang": 5335,
      "Ġalone": 5336,
      "ĠColor": 5337,
      "related": 5338,
      "ogy": 5339,
      "Ġusers": 5340,
      "ĠFe": 5341,
      "Ġcontained": 5342,
      "Ġ90": 5343,
      "Ġpian": 5344,
      "Ġadvanced": 5345,
      "Ġfailure": 5346,
      "Ġabsor": 5347,
      "Ġdamage": 5348,
      "Ġlearning": 5349,
      "Ġaband": 5350,
      "Ġentirely": 5351,
      "IA": 5352,
      "ĠCat": 5353,
      "Ġfreedom": 5354,
      "Ġcaptured": 5355,
      "Ġconducted": 5356,
      "--": 5357,
      "Ġstaff": 5358,
      "ĠFrancis": 5359,
      "lers": 5360,
      "Ġpict": 5361,
      "Ġvector": 5362,
      "Ġinfin": 5363,
      "Ġmathematics": 5364,
      "Ġrespond": 5365,
      "ĠSwedish": 5366,
      "kin": 5367,
      "Ġexists": 5368,
      "rapy": 5369,
      "Ġwebsite": 5370,
      "Ġdivers": 5371,
      "Ġbackground": 5372,
      "rugg": 5373,
      "ederation": 5374,
      "ito": 5375,
      "oples": 5376,
      "Ġ1946": 5377,
      "Ġphysic": 5378,
      "Ġconnect": 5379,
      "Ġneighbor": 5380,
      "Ġoccasion": 5381,
      "Ġadvoc": 5382,
      "500": 5383,
      "Ġbit": 5384,
      "Ġhypothes": 5385,
      "ĠEven": 5386,
      "ĠFam": 5387,
      "ĠHeb": 5388,
      "Ġaid": 5389,
      "gn": 5390,
      "Ġhun": 5391,
      "Ġunion": 5392,
      "onian": 5393,
      "Ġarrest": 5394,
      "Ġoperated": 5395,
      "Ġkingdom": 5396,
      "Ġcinem": 5397,
      "ĠBarb": 5398,
      "Ġquantum": 5399,
      "Ġreports": 5400,
      "lig": 5401,
      "uing": 5402,
      "ela": 5403,
      "Ġdefeat": 5404,
      "ĠPubl": 5405,
      "ĠAbb": 5406,
      "ĠChile": 5407,
      "iser": 5408,
      "Ġassist": 5409,
      "Ġ1943": 5410,
      "Ġ1949": 5411,
      "Ġ1939": 5412,
      "rix": 5413,
      "overs": 5414,
      "Ġdepart": 5415,
      "ĠLong": 5416,
      "ĠFootball": 5417,
      "Ġuser": 5418,
      "ibb": 5419,
      "Ġopportun": 5420,
      "Ġsufficient": 5421,
      "ounder": 5422,
      "Ġmuseum": 5423,
      "ĠFreder": 5424,
      "ĠSupreme": 5425,
      "atform": 5426,
      "ĠTurkish": 5427,
      "ĠUr": 5428,
      "venue": 5429,
      "ĠGard": 5430,
      "Ġconstructed": 5431,
      "Ġinfluential": 5432,
      "Ġradiation": 5433,
      "Ġleadership": 5434,
      "Ġbra": 5435,
      "ĠSuch": 5436,
      "TO": 5437,
      "Ġyoun": 5438,
      "ĠNon": 5439,
      "rics": 5440,
      "Ġcommunication": 5441,
      "Ġaspects": 5442,
      "rees": 5443,
      "Ġcore": 5444,
      "ĠMic": 5445,
      "dust": 5446,
      "Ġjoint": 5447,
      "gu": 5448,
      "akers": 5449,
      "Ġzero": 5450,
      "Ġmaintain": 5451,
      "iate": 5452,
      "ĠDisc": 5453,
      "place": 5454,
      "Ġscholar": 5455,
      "iary": 5456,
      "mond": 5457,
      "Ġprice": 5458,
      "Ġworkers": 5459,
      "Ġsetting": 5460,
      "ĠâĢľ": 5461,
      "life": 5462,
      "Ġtried": 5463,
      "oln": 5464,
      "Ġmagnitude": 5465,
      "bal": 5466,
      "inus": 5467,
      "struction": 5468,
      "ĠMoon": 5469,
      "ĠGreg": 5470,
      "wer": 5471,
      "ĠClub": 5472,
      "ĠStephen": 5473,
      "called": 5474,
      "ano": 5475,
      "Ġtrees": 5476,
      "itzer": 5477,
      "ĠByz": 5478,
      "Ġphilosopher": 5479,
      "Ġcollabor": 5480,
      "Ġacquired": 5481,
      "ĠProject": 5482,
      "Ġtechnique": 5483,
      "ĠAndrew": 5484,
      "ĠHealth": 5485,
      "ees": 5486,
      "alo": 5487,
      "ĠLu": 5488,
      "Ġ1952": 5489,
      "Ġowned": 5490,
      "ĠGovernor": 5491,
      "Ġpra": 5492,
      "Ġmap": 5493,
      "utation": 5494,
      "Ġscientists": 5495,
      "Ġstrength": 5496,
      "gr": 5497,
      "ĠBall": 5498,
      "Ġisol": 5499,
      "IS": 5500,
      "down": 5501,
      "Ġregarding": 5502,
      "Ġexecutive": 5503,
      "Ġcolonial": 5504,
      "Ġstorage": 5505,
      "ĠJournal": 5506,
      "ĠEgyptian": 5507,
      "lation": 5508,
      "Ġsuffered": 5509,
      "95": 5510,
      "Ġcatal": 5511,
      "Ġpurs": 5512,
      "umber": 5513,
      "Ġhero": 5514,
      "Ġtypical": 5515,
      "Ġheavily": 5516,
      "crib": 5517,
      "Ġwinter": 5518,
      "ĠEst": 5519,
      "Ġimperial": 5520,
      "Ġpublication": 5521,
      "Ġfear": 5522,
      "Ġchain": 5523,
      "ĠBefore": 5524,
      "ĠOffice": 5525,
      "ictions": 5526,
      "ady": 5527,
      "83": 5528,
      "Ġarmed": 5529,
      "ĠThrough": 5530,
      "bro": 5531,
      "Ġwides": 5532,
      "Ġenj": 5533,
      "Ġsurrounding": 5534,
      "ittle": 5535,
      "Ġ1918": 5536,
      "ĠHa": 5537,
      "ĠHon": 5538,
      "Ġ1954": 5539,
      "Ġpopularity": 5540,
      "Ġalcohol": 5541,
      "present": 5542,
      "pread": 5543,
      "Ġhop": 5544,
      "Ġformat": 5545,
      "Ġban": 5546,
      "hess": 5547,
      "ĠGoth": 5548,
      "Ġroll": 5549,
      "ĠBroad": 5550,
      "ĠWales": 5551,
      "Ġprojects": 5552,
      "ĠDenmark": 5553,
      "Ġfelt": 5554,
      "bi": 5555,
      "Ġ#": 5556,
      "Ġpet": 5557,
      "ĠWrit": 5558,
      "ĠBlue": 5559,
      "Ġparallel": 5560,
      "Ġschem": 5561,
      "Ġmedieval": 5562,
      "ĠPhilip": 5563,
      "ĠPersian": 5564,
      "bu": 5565,
      "Ġproteins": 5566,
      "Ġaudience": 5567,
      "set": 5568,
      "Ġusage": 5569,
      "Ġcomposition": 5570,
      "Ġmotor": 5571,
      "Ġmolecules": 5572,
      "Ġcryst": 5573,
      "ĠAh": 5574,
      "Ġscore": 5575,
      "itic": 5576,
      "ĠAri": 5577,
      "Ġsusp": 5578,
      "Ġbott": 5579,
      "ĠLew": 5580,
      "Ġchosen": 5581,
      "Ġextin": 5582,
      "ĠAustrian": 5583,
      "Ġemployed": 5584,
      "Ġfranch": 5585,
      "akh": 5586,
      "Ġopin": 5587,
      "Ġbul": 5588,
      "ĠFather": 5589,
      "Ġsup": 5590,
      "Ã¡n": 5591,
      "Ġterritories": 5592,
      "Ġfighting": 5593,
      "Ġign": 5594,
      "Ġdedicated": 5595,
      "wing": 5596,
      "Ġsales": 5597,
      "ĠJones": 5598,
      "Ġorganized": 5599,
      "Ġprinciples": 5600,
      "Ġprotein": 5601,
      "Ġdynasty": 5602,
      "ĠGuinea": 5603,
      "Ġempire": 5604,
      "Ġsemi": 5605,
      "oking": 5606,
      "issance": 5607,
      "ĠForces": 5608,
      "ĠGermanic": 5609,
      "ora": 5610,
      "Ġdang": 5611,
      "ĠHay": 5612,
      "agen": 5613,
      "ĠVar": 5614,
      "awa": 5615,
      "Ġtemperatures": 5616,
      "Ġdub": 5617,
      "ĠJacks": 5618,
      "ĠAustria": 5619,
      "Ġgoing": 5620,
      "Ġpurposes": 5621,
      "Ġpan": 5622,
      "leveland": 5623,
      "atically": 5624,
      "Ġpaid": 5625,
      "omial": 5626,
      "Ġexam": 5627,
      "ĠJack": 5628,
      "Ġmovie": 5629,
      "Ġorders": 5630,
      "isp": 5631,
      "ĠTw": 5632,
      "ĠBooks": 5633,
      "Ġdeveloping": 5634,
      "Ġparents": 5635,
      "Ġencoura": 5636,
      "Ġengines": 5637,
      "under": 5638,
      "ĠDer": 5639,
      "Ġstable": 5640,
      "ĠGar": 5641,
      "udget": 5642,
      "Ġheight": 5643,
      "ĠStat": 5644,
      "ĠMov": 5645,
      "ounded": 5646,
      "Ġinhabit": 5647,
      "een": 5648,
      "olar": 5649,
      "Ġstop": 5650,
      "AM": 5651,
      "Ġgene": 5652,
      "ĠColomb": 5653,
      "Ġphysics": 5654,
      "ĠBatman": 5655,
      "Ġanthrop": 5656,
      "ĠDeath": 5657,
      "Ġdemand": 5658,
      "ĠAssembly": 5659,
      "Ġruled": 5660,
      "ĠÂ£": 5661,
      "oring": 5662,
      "incoln": 5663,
      "Ġholds": 5664,
      "Ġpolicies": 5665,
      "Ġbinary": 5666,
      "unar": 5667,
      "ĠLove": 5668,
      "Ġcausing": 5669,
      "37": 5670,
      "Ġfile": 5671,
      "ĠArist": 5672,
      "Ġabsol": 5673,
      "Ġrein": 5674,
      "Ġotherwise": 5675,
      "Ġsettlement": 5676,
      "Ġ177": 5677,
      "Ġargument": 5678,
      "Ġmodified": 5679,
      "Ġmountain": 5680,
      "Ġvariable": 5681,
      "Ġleave": 5682,
      "Ġflat": 5683,
      "ĠConfeder": 5684,
      "phone": 5685,
      "ĠEngine": 5686,
      "Ġwidespread": 5687,
      "bell": 5688,
      "Ġcars": 5689,
      "Ġ1955": 5690,
      "enna": 5691,
      "Ġbirths": 5692,
      "32": 5693,
      "ucl": 5694,
      "ĠSimilar": 5695,
      "ĠFrancisco": 5696,
      "ĠNorm": 5697,
      "Ġarms": 5698,
      "hard": 5699,
      "anto": 5700,
      "Ġperhaps": 5701,
      "Ġroom": 5702,
      "ĠProgram": 5703,
      "Ġeditor": 5704,
      "Ġfleet": 5705,
      "Ġfil": 5706,
      "Ġquite": 5707,
      "from": 5708,
      "vard": 5709,
      "ĠCleveland": 5710,
      "ĠBru": 5711,
      "ĠChief": 5712,
      "Ġaffected": 5713,
      "ĠColl": 5714,
      "eget": 5715,
      "ĠCharl": 5716,
      "Ġultimately": 5717,
      "aming": 5718,
      "ĠMot": 5719,
      "ĠRod": 5720,
      "ooth": 5721,
      "atab": 5722,
      "Ġsun": 5723,
      "Ġcod": 5724,
      "ira": 5725,
      "Ġengineer": 5726,
      "stream": 5727,
      "%.": 5728,
      "48": 5729,
      "Ġchap": 5730,
      "Ġunderst": 5731,
      "Ġ1953": 5732,
      "ĠDoctor": 5733,
      "burgh": 5734,
      "ĠJackson": 5735,
      "Ġportray": 5736,
      "igrants": 5737,
      "cious": 5738,
      "ĠMah": 5739,
      "ĠFried": 5740,
      "sk": 5741,
      "ĠSat": 5742,
      "Ġstudio": 5743,
      "zym": 5744,
      "Ġmic": 5745,
      "ĠAM": 5746,
      "ession": 5747,
      "Ġ1957": 5748,
      "Ġofficers": 5749,
      "Ġbishop": 5750,
      "Ġpopulations": 5751,
      "ketball": 5752,
      "TV": 5753,
      "Ġsail": 5754,
      "imb": 5755,
      "ophical": 5756,
      "Ġsatisf": 5757,
      "Ġcosm": 5758,
      "ĠAsian": 5759,
      "Ġinvasion": 5760,
      "Ġ500": 5761,
      "ĠLincoln": 5762,
      "Ġdrive": 5763,
      "Ġlogic": 5764,
      "ishops": 5765,
      "heim": 5766,
      "ĠTri": 5767,
      "ĠConc": 5768,
      "gg": 5769,
      "ĠSar": 5770,
      "itionally": 5771,
      "Ġcritics": 5772,
      "Ġdetermine": 5773,
      "tes": 5774,
      "Ġcorn": 5775,
      "Ġcards": 5776,
      "ruit": 5777,
      "Ġproducing": 5778,
      "Ġfinished": 5779,
      "ĠTown": 5780,
      "ĠPoland": 5781,
      "Ġconcepts": 5782,
      "antry": 5783,
      "Ġadvert": 5784,
      "ronic": 5785,
      "ĠDaniel": 5786,
      "Ġliquid": 5787,
      "Ġfashion": 5788,
      "ĠDougl": 5789,
      "Ġring": 5790,
      "overe": 5791,
      "Ġdefense": 5792,
      "ĠConvention": 5793,
      "roduction": 5794,
      "Ġresearc": 5795,
      "Ġimproved": 5796,
      "Th": 5797,
      "pa": 5798,
      "Ġcrisis": 5799,
      "ĠCrit": 5800,
      "Ġpeoples": 5801,
      "Ġpractices": 5802,
      "Ġacids": 5803,
      "Ġstrateg": 5804,
      "Ġmaintained": 5805,
      "55": 5806,
      "Ġfer": 5807,
      "resh": 5808,
      "ennis": 5809,
      "Ġpeak": 5810,
      "Ġmathematical": 5811,
      "Ġranked": 5812,
      "ĠProtestant": 5813,
      "CC": 5814,
      "rin": 5815,
      "Ġstock": 5816,
      "ĠHebrew": 5817,
      "Ġcollege": 5818,
      "Ġmanufactur": 5819,
      "49": 5820,
      "resents": 5821,
      "ĠAlfred": 5822,
      "uous": 5823,
      "Ġpreced": 5824,
      "Ġsteel": 5825,
      "Ġmedicine": 5826,
      "Ġconcluded": 5827,
      "itage": 5828,
      "ellect": 5829,
      "Ġregist": 5830,
      "Ġauthorities": 5831,
      "Ġdrink": 5832,
      "rency": 5833,
      "Ġstrugg": 5834,
      "ĠHell": 5835,
      "iah": 5836,
      "gers": 5837,
      "ĠArts": 5838,
      "ĠAngeles": 5839,
      "ĠAud": 5840,
      "Ġplane": 5841,
      "Ġtraditions": 5842,
      "Ġpieces": 5843,
      "Ġcovered": 5844,
      "ĠCas": 5845,
      "Ġ150": 5846,
      "Ġclassified": 5847,
      "Ġinterpretation": 5848,
      "iat": 5849,
      "Ġalk": 5850,
      "ĠWars": 5851,
      "ublin": 5852,
      "Ġgoods": 5853,
      "itting": 5854,
      "stone": 5855,
      "ĠLike": 5856,
      "Ġintelligence": 5857,
      "ĠComputer": 5858,
      "Ġsomew": 5859,
      "ĠPlan": 5860,
      "87": 5861,
      "Ġwild": 5862,
      "Ġdry": 5863,
      "Ġdism": 5864,
      "ĠEnd": 5865,
      "Ġrepresentation": 5866,
      "ĠEthiop": 5867,
      "ĠSecretary": 5868,
      "ĠAber": 5869,
      "Ġstone": 5870,
      "ĠToday": 5871,
      "=\"": 5872,
      "fall": 5873,
      "umes": 5874,
      "ĠLet": 5875,
      "Ġchart": 5876,
      "Ġexception": 5877,
      "Ġrepeated": 5878,
      "rav": 5879,
      "ifications": 5880,
      "ĠCommunity": 5881,
      "Ġce": 5882,
      "Ġfrag": 5883,
      "ĠMicro": 5884,
      "ĠIndepend": 5885,
      "Ġrestrict": 5886,
      "ĠAnglican": 5887,
      "Ġvisual": 5888,
      "Ġinvolving": 5889,
      "Ã³n": 5890,
      "ĠVirginia": 5891,
      "Ġalt": 5892,
      "abil": 5893,
      "Ġtrain": 5894,
      "ĠFA": 5895,
      "ĠRay": 5896,
      "Ġgenre": 5897,
      "ĠYou": 5898,
      "Ġmanuscript": 5899,
      "Ġprogress": 5900,
      "Ġmedium": 5901,
      "organ": 5902,
      "etime": 5903,
      "ĠGuard": 5904,
      "ĠGolden": 5905,
      "Ġlat": 5906,
      "Ġdescent": 5907,
      "iny": 5908,
      "ĠField": 5909,
      "Ġalter": 5910,
      "ques": 5911,
      "Ġfeat": 5912,
      "III": 5913,
      "Ġinterpre": 5914,
      "Ġrailway": 5915,
      "39": 5916,
      "oir": 5917,
      "ĠUl": 5918,
      "Ġkilling": 5919,
      "Ġquarter": 5920,
      "ĠSweden": 5921,
      "ga": 5922,
      "nia": 5923,
      "oa": 5924,
      "Ġ(),": 5925,
      "sey": 5926,
      "ture": 5927,
      "cts": 5928,
      "amics": 5929,
      "Ġseats": 5930,
      "Ġfinite": 5931,
      "overeign": 5932,
      "avig": 5933,
      "ĠBol": 5934,
      "Ġconfirmed": 5935,
      "Ġthousands": 5936,
      "icism": 5937,
      "ĠDue": 5938,
      "Ġrepresents": 5939,
      "Ġconcentration": 5940,
      "di": 5941,
      "kh": 5942,
      "Ġalphabet": 5943,
      "iants": 5944,
      "Ġindicate": 5945,
      "Ġrevealed": 5946,
      "MA": 5947,
      "Ġprocessing": 5948,
      "Ġofficials": 5949,
      "ĠFinnish": 5950,
      "seud": 5951,
      "Ġelectrical": 5952,
      "Ġtechnical": 5953,
      "Ġspiritual": 5954,
      "ser": 5955,
      "asts": 5956,
      "Ġcancer": 5957,
      "Ġpit": 5958,
      "Ġsty": 5959,
      "achus": 5960,
      "Ġroute": 5961,
      "Ġconverted": 5962,
      "ĠCapt": 5963,
      "ĠHor": 5964,
      "ĠLabor": 5965,
      "quarters": 5966,
      "Ġattend": 5967,
      "Ġnewly": 5968,
      "racted": 5969,
      "ockey": 5970,
      "Ġimages": 5971,
      "ĠGeorgia": 5972,
      "Ġcensus": 5973,
      "Ġfram": 5974,
      "Ġgain": 5975,
      "Ġapproved": 5976,
      "Ġvehicles": 5977,
      "Ġsister": 5978,
      "ĠBir": 5979,
      "osite": 5980,
      "ĠThough": 5981,
      "Ġelev": 5982,
      "Ġattributed": 5983,
      "ĠSenate": 5984,
      "Ġbridge": 5985,
      "amber": 5986,
      "ĠIll": 5987,
      "Ġven": 5988,
      "ĠAlexandria": 5989,
      "Ġago": 5990,
      "Ġcategory": 5991,
      "Ġfifth": 5992,
      "Ġvess": 5993,
      "Ġrival": 5994,
      "Ġ32": 5995,
      "Ġpoem": 5996,
      "Ġpiece": 5997,
      "ĠDigital": 5998,
      "Ġroughly": 5999,
      "Ġmaster": 6000,
      "etts": 6001,
      "zerb": 6002,
      "Ġdescription": 6003,
      "46": 6004,
      "dess": 6005,
      "ĠDublin": 6006,
      "Ġabol": 6007,
      "Ġextent": 6008,
      "100": 6009,
      "dam": 6010,
      "ienced": 6011,
      "Ġexerc": 6012,
      "Ġran": 6013,
      "Ġprincipal": 6014,
      "Ġpilot": 6015,
      "\";": 6016,
      "ĠMax": 6017,
      "Ġyield": 6018,
      "hips": 6019,
      "Ġtermin": 6020,
      "Ġvalid": 6021,
      "Ġhouses": 6022,
      "Ġextremely": 6023,
      "Ar": 6024,
      "Ġlives": 6025,
      "ager": 6026,
      "Ġexpect": 6027,
      "Ġtransform": 6028,
      "Ġhistorians": 6029,
      "Ġspeakers": 6030,
      "zerbaij": 6031,
      "ĠJeff": 6032,
      "Ġequations": 6033,
      "Ġaffect": 6034,
      "Ġsort": 6035,
      "Ġbind": 6036,
      "Ġcontinues": 6037,
      "Ġcorresponding": 6038,
      "Ġswe": 6039,
      "Ġvel": 6040,
      "ĠBetween": 6041,
      "grad": 6042,
      "Ġion": 6043,
      "inian": 6044,
      "Ġsn": 6045,
      "ĠAwards": 6046,
      "adron": 6047,
      "ĠProv": 6048,
      "Ġ1951": 6049,
      "Ġportion": 6050,
      "Un": 6051,
      "Ġproof": 6052,
      "Ġattended": 6053,
      "Ġvisited": 6054,
      "ĠTop": 6055,
      "ĠRh": 6056,
      "Ġevolved": 6057,
      "come": 6058,
      "Ġcuis": 6059,
      "Ġresidents": 6060,
      "ba": 6061,
      "gment": 6062,
      "Ġofficer": 6063,
      "state": 6064,
      "Ġtransition": 6065,
      "Ġmagnetic": 6066,
      "Ġcab": 6067,
      "Ġfoss": 6068,
      "ĠSund": 6069,
      "ĠSpecial": 6070,
      "hemical": 6071,
      "kes": 6072,
      "ĠBus": 6073,
      "ĠDam": 6074,
      "ĠLine": 6075,
      "Ġtraffic": 6076,
      "Ġsafety": 6077,
      "eld": 6078,
      "ographical": 6079,
      "ĠTurkey": 6080,
      "Ġenemy": 6081,
      "Ġwritings": 6082,
      "Ġassociation": 6083,
      "Ġcogn": 6084,
      "ĠCape": 6085,
      "Ġincreases": 6086,
      "Ġdetect": 6087,
      "Ġaccounts": 6088,
      "ĠStandard": 6089,
      "Ġmoral": 6090,
      "ĠIra": 6091,
      "clusion": 6092,
      "Ġdominant": 6093,
      "liography": 6094,
      "Ġcharacteristics": 6095,
      "itarian": 6096,
      "Ġfr": 6097,
      "elve": 6098,
      "ĠBoy": 6099,
      "Ġhabit": 6100,
      "ĠSong": 6101,
      "Ġteaching": 6102,
      "Ġcas": 6103,
      "ĠIV": 6104,
      "ĠPen": 6105,
      "ĠChild": 6106,
      "ĠRecords": 6107,
      "Ġenjoy": 6108,
      "PA": 6109,
      "Ġdates": 6110,
      "ĠSon": 6111,
      "Ġseems": 6112,
      "Ġcomponent": 6113,
      "Ġdiscovery": 6114,
      "ĠCountry": 6115,
      "34": 6116,
      "non": 6117,
      "ĠEug": 6118,
      "ranean": 6119,
      "def": 6120,
      "Ã±": 6121,
      "ancing": 6122,
      "Ġ45": 6123,
      "Ġguitarist": 6124,
      "Ġplatform": 6125,
      "Ġinvent": 6126,
      "'.": 6127,
      "illing": 6128,
      "icks": 6129,
      "Ġdisorder": 6130,
      "Ġconsisting": 6131,
      "Ġsettled": 6132,
      "ĠDistrict": 6133,
      "Al": 6134,
      "iency": 6135,
      "ĠRet": 6136,
      "Ġarts": 6137,
      "Ġgir": 6138,
      "ĠLar": 6139,
      "Ġ1937": 6140,
      "ĠPhys": 6141,
      "Ġzone": 6142,
      "Ġconnection": 6143,
      "unc": 6144,
      "Ġvac": 6145,
      "Ġjuris": 6146,
      "ook": 6147,
      "aly": 6148,
      "rising": 6149,
      "Ġtraditionally": 6150,
      "ĠValley": 6151,
      "cell": 6152,
      "inth": 6153,
      "ĠSand": 6154,
      "ĠPenn": 6155,
      "rices": 6156,
      "Ġ1938": 6157,
      "Ġimprove": 6158,
      "ibbean": 6159,
      "rator": 6160,
      "wan": 6161,
      "ati": 6162,
      "ules": 6163,
      "Ġunable": 6164,
      "Ġmovements": 6165,
      "Ġdebate": 6166,
      "Ġcoming": 6167,
      "Ġvoc": 6168,
      "Ġampl": 6169,
      "Ġdomain": 6170,
      "36": 6171,
      "Ġcold": 6172,
      "Ġbrand": 6173,
      "ĠAzerbaij": 6174,
      "ĠWell": 6175,
      "Ġmemb": 6176,
      "ĠProdu": 6177,
      "Ġ1933": 6178,
      "gement": 6179,
      "itled": 6180,
      "ĠWomen": 6181,
      "Ġspaces": 6182,
      "Ġactors": 6183,
      "Ġantib": 6184,
      "Ġanalog": 6185,
      "Ġcontributed": 6186,
      "Ġpartn": 6187,
      "Ġdesigns": 6188,
      "Ġgreatly": 6189,
      "ĠTestament": 6190,
      "Ġcomic": 6191,
      "Ġneeds": 6192,
      "anes": 6193,
      "omp": 6194,
      "ĠDom": 6195,
      "Ġspring": 6196,
      "Ġbegins": 6197,
      "Ġtowns": 6198,
      "Ġunderstood": 6199,
      "ĠEqu": 6200,
      "endar": 6201,
      "ĠBelg": 6202,
      "ĠMcC": 6203,
      "Ġsatell": 6204,
      "ĠRoad": 6205,
      "Ġlabel": 6206,
      "Ġreactions": 6207,
      "ĠLyn": 6208,
      "Ġrecording": 6209,
      "Ġarticles": 6210,
      "communic": 6211,
      "ĠWeb": 6212,
      "Ġmulti": 6213,
      "Ġbirds": 6214,
      "Ġly": 6215,
      "ivals": 6216,
      "ĠEston": 6217,
      "ĠEncyclop": 6218,
      "fully": 6219,
      "Ġelimin": 6220,
      "Ġhardware": 6221,
      "54": 6222,
      "Ġhus": 6223,
      "ĠHop": 6224,
      "Ġsurvey": 6225,
      "Ġcolonies": 6226,
      "emic": 6227,
      "Ġ1900": 6228,
      "aints": 6229,
      "Ġparam": 6230,
      "avalry": 6231,
      "inations": 6232,
      "ĠCant": 6233,
      "igan": 6234,
      "Ġcanon": 6235,
      "Ġdisput": 6236,
      "ĠAtt": 6237,
      "Ġcapable": 6238,
      "Ġmeasured": 6239,
      "roup": 6240,
      "Ġcourts": 6241,
      "Ġvisit": 6242,
      "Ġvillage": 6243,
      "uten": 6244,
      "Ġsubm": 6245,
      "Ġtitles": 6246,
      "ĠCorporation": 6247,
      "An": 6248,
      "Ġmor": 6249,
      "ĠMen": 6250,
      "189": 6251,
      "Ġdeliver": 6252,
      "Ġstrongly": 6253,
      "ĠFox": 6254,
      "Ġimag": 6255,
      "ugby": 6256,
      "Ġentertain": 6257,
      "Ġwalls": 6258,
      "ĠJustice": 6259,
      "bar": 6260,
      "Ġ1917": 6261,
      "Ġchannel": 6262,
      "Ġ1929": 6263,
      "Ġviolence": 6264,
      "ĠLewis": 6265,
      "ructions": 6266,
      "ibn": 6267,
      "ĠVis": 6268,
      "theless": 6269,
      "Ġinvolves": 6270,
      "Ġclubs": 6271,
      "Ġgalax": 6272,
      "ĠAk": 6273,
      "Ġrandom": 6274,
      "Ġappropri": 6275,
      "Ġoccupied": 6276,
      "ĠFI": 6277,
      "ĠDun": 6278,
      "ansas": 6279,
      "Ġgovernments": 6280,
      "38": 6281,
      "Ġtaught": 6282,
      "Ġwalk": 6283,
      "osure": 6284,
      "Ġchemistry": 6285,
      "ĠEconomic": 6286,
      "Ġmouth": 6287,
      "Ġ1914": 6288,
      "Ġnarrow": 6289,
      "power": 6290,
      "Ġcompil": 6291,
      "Ġextreme": 6292,
      "Ġemerged": 6293,
      "ĠCuba": 6294,
      "iations": 6295,
      "ĠPhilipp": 6296,
      "Ġthousand": 6297,
      "ĠCroatia": 6298,
      "Ġinhabitants": 6299,
      "ropical": 6300,
      "pective": 6301,
      "ĠAges": 6302,
      "ĠWater": 6303,
      "Ġsumm": 6304,
      "Is": 6305,
      "izon": 6306,
      "outheast": 6307,
      "Ġmanaged": 6308,
      "Ġnormally": 6309,
      "Ġrapidly": 6310,
      "usalem": 6311,
      "Ġ*": 6312,
      "Ġnovels": 6313,
      "ĠDarwin": 6314,
      "Ġ300": 6315,
      "ota": 6316,
      "odore": 6317,
      "Ġnothing": 6318,
      "Ġenzym": 6319,
      "Ġveget": 6320,
      "udes": 6321,
      "Ġsole": 6322,
      "speaking": 6323,
      "ĠArtic": 6324,
      "Ġnearby": 6325,
      "ĠEducation": 6326,
      "achusetts": 6327,
      "oes": 6328,
      "ctors": 6329,
      "Ġvast": 6330,
      "Ġselected": 6331,
      "Ġcool": 6332,
      "Ġexplos": 6333,
      "Ġarchae": 6334,
      "Ġtitled": 6335,
      "ji": 6336,
      "Ġcorpor": 6337,
      "Ġadvance": 6338,
      "ja": 6339,
      "Ġcrime": 6340,
      "Ġnewspaper": 6341,
      "Ġprohib": 6342,
      "Ġadministrative": 6343,
      "iterranean": 6344,
      "Ġgeometry": 6345,
      "sch": 6346,
      "Ġtim": 6347,
      "instein": 6348,
      "ifies": 6349,
      "Ġindigenous": 6350,
      "Ġalongside": 6351,
      "Ġcircle": 6352,
      "Ġmeasures": 6353,
      "Ġatomic": 6354,
      "Ġagricultural": 6355,
      "xic": 6356,
      "Ġwars": 6357,
      "Ġrational": 6358,
      "iox": 6359,
      "Ġcriticism": 6360,
      "ava": 6361,
      "Ġunp": 6362,
      "Ġparticle": 6363,
      "Ġpresidential": 6364,
      "Ġbeliefs": 6365,
      "Ġtail": 6366,
      "ĠJr": 6367,
      "Ġdecline": 6368,
      "Ġinstitution": 6369,
      "Ġcultures": 6370,
      "Ġonto": 6371,
      "Ġdefend": 6372,
      "Ġcalls": 6373,
      "Ġextension": 6374,
      "Ġtruth": 6375,
      "Ġhousehold": 6376,
      "xual": 6377,
      "ĠÅ": 6378,
      "Ġinher": 6379,
      "Ġbudget": 6380,
      "Ġmanner": 6381,
      "ctic": 6382,
      "Ġprepar": 6383,
      "Ġorganisms": 6384,
      "Ġbegin": 6385,
      "onom": 6386,
      "ĠFu": 6387,
      "ĠChron": 6388,
      "enses": 6389,
      "Ġ1936": 6390,
      "ĠCaribbean": 6391,
      "Ġsymbols": 6392,
      "Ġfought": 6393,
      "osaur": 6394,
      "Ġselect": 6395,
      "Ġangle": 6396,
      "ĠMassachusetts": 6397,
      "TP": 6398,
      "Ġbad": 6399,
      "ura": 6400,
      "ĠPier": 6401,
      "Ġexplan": 6402,
      "vest": 6403,
      "ĨĴ": 6404,
      "ĠGood": 6405,
      "Ġending": 6406,
      "ĠProfess": 6407,
      "IV": 6408,
      "iac": 6409,
      "Ġscreenwriter": 6410,
      "31": 6411,
      "hire": 6412,
      "rary": 6413,
      "alse": 6414,
      "iph": 6415,
      "66": 6416,
      "Ġaer": 6417,
      "Ġprint": 6418,
      "Ġperiods": 6419,
      "Ġpersonnel": 6420,
      "Ġexperienced": 6421,
      "Ġseparated": 6422,
      "Ġtwice": 6423,
      "ĠAthens": 6424,
      "ĠOrganization": 6425,
      "erals": 6426,
      "org": 6427,
      "abilities": 6428,
      "Ġguns": 6429,
      "ĠLes": 6430,
      "ĠColon": 6431,
      "ĠAnglo": 6432,
      "Ġconcerns": 6433,
      "Ġroles": 6434,
      "ĠJohann": 6435,
      "Ġmessage": 6436,
      "iti": 6437,
      "opol": 6438,
      "Ġacting": 6439,
      "Ġpractical": 6440,
      "Ġ1901": 6441,
      "Ġchallen": 6442,
      "BA": 6443,
      "edition": 6444,
      "Ġfans": 6445,
      "Ġbeaut": 6446,
      "ĠEnter": 6447,
      "hens": 6448,
      "Ġserving": 6449,
      "Ġexplicit": 6450,
      "know": 6451,
      "keley": 6452,
      "Ġdiscip": 6453,
      "Ġbiological": 6454,
      "ropolitan": 6455,
      "OM": 6456,
      "Ġtom": 6457,
      "ĠChannel": 6458,
      "ificial": 6459,
      "ĠIraq": 6460,
      "ĠWilliams": 6461,
      "Ġcomplexity": 6462,
      "Ġlinked": 6463,
      "Ġteach": 6464,
      "Ġconscious": 6465,
      "Ġassigned": 6466,
      "Ġconstruct": 6467,
      "ĠBuddha": 6468,
      "omes": 6469,
      "going": 6470,
      "ĠFranklin": 6471,
      "aved": 6472,
      "obe": 6473,
      "ĠClin": 6474,
      "ĠAmaz": 6475,
      "Ġargues": 6476,
      "Ġfirm": 6477,
      "ĠDie": 6478,
      "Ġconvention": 6479,
      "ĠOnly": 6480,
      "ES": 6481,
      "Ġminist": 6482,
      "ĠFle": 6483,
      "Ġattract": 6484,
      "Ġopposite": 6485,
      "Ġviewed": 6486,
      "iga": 6487,
      "Ġseat": 6488,
      "Ġarbit": 6489,
      "Ġalleged": 6490,
      "Ġbacteria": 6491,
      "rÃ©": 6492,
      "indu": 6493,
      "ĠTro": 6494,
      "ĠDor": 6495,
      "ambig": 6496,
      "Ġbow": 6497,
      "Ġstress": 6498,
      "ĠJon": 6499,
      "ribute": 6500,
      "ĠOpen": 6501,
      "NS": 6502,
      "abul": 6503,
      "Ġsle": 6504,
      "Ġpick": 6505,
      "uster": 6506,
      "Ġpersons": 6507,
      "ĠStudies": 6508,
      "hi": 6509,
      "ĠSin": 6510,
      "ĠMediterranean": 6511,
      "Ġholding": 6512,
      "Ġfocused": 6513,
      "ĠFire": 6514,
      "antly": 6515,
      "Ġconsiderable": 6516,
      "Ġstraight": 6517,
      "ĠColorado": 6518,
      "pha": 6519,
      "Ġeffectively": 6520,
      "Ã¼r": 6521,
      "Ġmort": 6522,
      "Ġsilver": 6523,
      "olt": 6524,
      "Ġ1919": 6525,
      "Ġproceed": 6526,
      "Ġselection": 6527,
      "Ġaccompan": 6528,
      "gence": 6529,
      "ĠMi": 6530,
      "Ġdeploy": 6531,
      "rance": 6532,
      "Ġshall": 6533,
      "ellectual": 6534,
      "ĠIndust": 6535,
      "Ġsucceeded": 6536,
      "hum": 6537,
      "Ġgar": 6538,
      "ictional": 6539,
      "Ġslaves": 6540,
      "ictionary": 6541,
      "atem": 6542,
      "Ġbear": 6543,
      "ĠExp": 6544,
      "Ġinvestment": 6545,
      "Ġoxid": 6546,
      "Ġbattles": 6547,
      "ĠDominican": 6548,
      "mad": 6549,
      "nes": 6550,
      "agement": 6551,
      "Ġcommander": 6552,
      "Ġ65": 6553,
      "Ġsevere": 6554,
      "Ġcosts": 6555,
      "Ġuniversal": 6556,
      "Ġdrugs": 6557,
      "Ġod": 6558,
      "Ġtools": 6559,
      "ĠOh": 6560,
      "Ġtheme": 6561,
      "Ġexperiments": 6562,
      "IM": 6563,
      "Ġassass": 6564,
      "Ġrecognition": 6565,
      "ĠByzantine": 6566,
      "Ġfat": 6567,
      "oca": 6568,
      "Ġvisible": 6569,
      "Ġsympt": 6570,
      "ĠSerb": 6571,
      "Ġbehavi": 6572,
      "Ġperfect": 6573,
      "erve": 6574,
      "Ġtrial": 6575,
      "Ġdegrees": 6576,
      "Ġincorporated": 6577,
      "uff": 6578,
      "ĠTrad": 6579,
      "Ġformally": 6580,
      "Ġideal": 6581,
      "Ġpatterns": 6582,
      "Ġcomparison": 6583,
      "Ġpione": 6584,
      "ĠBeng": 6585,
      "Ġ1928": 6586,
      "Ġvehicle": 6587,
      "Ġinnov": 6588,
      "Ġfeaturing": 6589,
      "yan": 6590,
      "ĠLy": 6591,
      "Ġsupporting": 6592,
      "Ġdialects": 6593,
      "FC": 6594,
      "Ġtiss": 6595,
      "Ġbatter": 6596,
      "eless": 6597,
      "Ġvo": 6598,
      "uda": 6599,
      "Ġrich": 6600,
      "ĠFrederick": 6601,
      "roit": 6602,
      "Ġdaily": 6603,
      "Ġresearchers": 6604,
      "idel": 6605,
      "aven": 6606,
      "Ġnote": 6607,
      "ĠDonald": 6608,
      "ĠSyn": 6609,
      "Ġsust": 6610,
      "Ġcompl": 6611,
      "ĠJerusalem": 6612,
      "ĠGhana": 6613,
      "Ġjurisd": 6614,
      "jection": 6615,
      "rient": 6616,
      "ĠCorps": 6617,
      "ĠBerkeley": 6618,
      "ĠSalv": 6619,
      "84": 6620,
      "Ġnaval": 6621,
      "Ġwhy": 6622,
      "ĠVi": 6623,
      "Ġdecade": 6624,
      "Ġoperate": 6625,
      "imensional": 6626,
      "erate": 6627,
      "ĠLuther": 6628,
      "ĠBoard": 6629,
      "Ġadapted": 6630,
      "ĠConstantin": 6631,
      "ĠNazi": 6632,
      "iot": 6633,
      "ĠGer": 6634,
      "operation": 6635,
      "Ġabst": 6636,
      "ĠArk": 6637,
      "Ġerror": 6638,
      "ĠHollywood": 6639,
      "ĠLittle": 6640,
      "Ġunf": 6641,
      "Ġcharacterized": 6642,
      "ĠHistorical": 6643,
      "Ġpros": 6644,
      "ricts": 6645,
      "Ġ64": 6646,
      "ossible": 6647,
      "Ġexplained": 6648,
      "pet": 6649,
      "Ġinform": 6650,
      "Ġstream": 6651,
      "issions": 6652,
      "Ġbasketball": 6653,
      "rastructure": 6654,
      "Ġsovereign": 6655,
      "Ġansw": 6656,
      "ĠTour": 6657,
      "ĠOd": 6658,
      "Ġassumed": 6659,
      "Ġsan": 6660,
      "Ġbapt": 6661,
      "Ġenh": 6662,
      "Ġforming": 6663,
      "187": 6664,
      "Ġdocuments": 6665,
      "ĠAdminist": 6666,
      "stan": 6667,
      "Ġleads": 6668,
      "Ġshowing": 6669,
      "Ġpermanent": 6670,
      "ĠAch": 6671,
      "ĠPass": 6672,
      "ĠShort": 6673,
      "mod": 6674,
      "Ġdrop": 6675,
      "ĠTre": 6676,
      "omers": 6677,
      "ĠPC": 6678,
      "Ġstrict": 6679,
      "oked": 6680,
      "Ġ1934": 6681,
      "Ġconcert": 6682,
      "unct": 6683,
      "hedral": 6684,
      "Ġclassification": 6685,
      "Ġlanding": 6686,
      "Ġstrip": 6687,
      "Ġefficient": 6688,
      "fare": 6689,
      "sky": 6690,
      "aration": 6691,
      "ĠAff": 6692,
      "Ġunderstand": 6693,
      "ĠOs": 6694,
      "Ġarc": 6695,
      "ĠPolitical": 6696,
      "Ġatmosphere": 6697,
      "ĠBapt": 6698,
      "ĠPower": 6699,
      "Ġdesignated": 6700,
      "Ġstyles": 6701,
      "Ġcuisine": 6702,
      "81": 6703,
      "billion": 6704,
      "ĠSym": 6705,
      "ima": 6706,
      "Ġedge": 6707,
      "Ġshell": 6708,
      "Ġcoastal": 6709,
      "Ġtreated": 6710,
      "ĠTechnology": 6711,
      "Ġdoctrine": 6712,
      "town": 6713,
      "Ġtren": 6714,
      "Ġmist": 6715,
      "ĠUk": 6716,
      "ĠNapole": 6717,
      "icians": 6718,
      "Ġbroke": 6719,
      "Ġcategories": 6720,
      "Ġbanks": 6721,
      "Ġmobile": 6722,
      "Ġadopt": 6723,
      "Ġachieve": 6724,
      "Ġbran": 6725,
      "ĠEucl": 6726,
      "venth": 6727,
      "Ġrequest": 6728,
      "ĠFoundation": 6729,
      "ĠVietnam": 6730,
      "ĠCaptain": 6731,
      "ĠBelgium": 6732,
      "Ġrob": 6733,
      "ĠSecurity": 6734,
      "Ġcounty": 6735,
      "Ġaudio": 6736,
      "Ġepisodes": 6737,
      "olph": 6738,
      "apse": 6739,
      "ersey": 6740,
      "istical": 6741,
      "Ġgenerated": 6742,
      "Ġcalc": 6743,
      "aya": 6744,
      "ultan": 6745,
      "Ġends": 6746,
      "Ġagriculture": 6747,
      "Ġsomewhat": 6748,
      "ĠFair": 6749,
      "Ġdepos": 6750,
      "Ġmechanism": 6751,
      "Ġtribes": 6752,
      "Ġsuccessfully": 6753,
      "Ġmachines": 6754,
      "ĠMinistry": 6755,
      "ader": 6756,
      "Ġadding": 6757,
      "ithms": 6758,
      "Ġleaves": 6759,
      "Ã©e": 6760,
      "Ġdescend": 6761,
      "Ġdisk": 6762,
      "Ġtesting": 6763,
      "Euro": 6764,
      "Ġdoll": 6765,
      "rome": 6766,
      "Ġrivers": 6767,
      "ĠSee": 6768,
      "Ġmathematician": 6769,
      "Ġlibrary": 6770,
      "Ġdistributed": 6771,
      "uador": 6772,
      "Î±": 6773,
      "Ġphon": 6774,
      "Ġ1924": 6775,
      "agnetic": 6776,
      "Ġdriver": 6777,
      "Ġfacilities": 6778,
      "claimed": 6779,
      "Ġabsolute": 6780,
      "hus": 6781,
      "Ġcrop": 6782,
      "Ġproduces": 6783,
      "Ġcra": 6784,
      "Ġpray": 6785,
      "Ġrural": 6786,
      "Ġyour": 6787,
      "ĠEnvironment": 6788,
      "ĠGuatem": 6789,
      "aux": 6790,
      "Ġdialect": 6791,
      "Ġyounger": 6792,
      "Ġhusband": 6793,
      "Ġlie": 6794,
      "dered": 6795,
      "Ġrecip": 6796,
      "ĠBulgar": 6797,
      "hyth": 6798,
      "long": 6799,
      "Ġwa": 6800,
      "Ġtourn": 6801,
      "Ġstim": 6802,
      "lder": 6803,
      "wealth": 6804,
      "ĠMaria": 6805,
      "Ġcheck": 6806,
      "ategy": 6807,
      "apes": 6808,
      "ĠUnlike": 6809,
      "Ġstrategy": 6810,
      "Ġcharacteristic": 6811,
      "Ġveloc": 6812,
      "rat": 6813,
      "Ġthrone": 6814,
      "Ġroot": 6815,
      "Ġexisted": 6816,
      "Ġcapture": 6817,
      "erted": 6818,
      "avel": 6819,
      "illery": 6820,
      "Ġneither": 6821,
      "Ġreferences": 6822,
      "Ġbusinessman": 6823,
      "Ġcopies": 6824,
      "Ġdistinction": 6825,
      "OL": 6826,
      "Ġmir": 6827,
      "Ġexport": 6828,
      "ĠJan": 6829,
      "ipher": 6830,
      "Ġadvent": 6831,
      "Ġyouth": 6832,
      "Ġopera": 6833,
      "Ġ1931": 6834,
      "ylvan": 6835,
      "ĠTherefore": 6836,
      "apping": 6837,
      "iner": 6838,
      "Ġdiet": 6839,
      "Ġfloor": 6840,
      "Ġprovinces": 6841,
      "law": 6842,
      "ĠLiter": 6843,
      "agh": 6844,
      "Ġburied": 6845,
      "ĠWalter": 6846,
      "Ġdetails": 6847,
      "Ġmilit": 6848,
      "Ġisot": 6849,
      "ĠDick": 6850,
      "Ġcoe": 6851,
      "cers": 6852,
      "ections": 6853,
      "Ġwant": 6854,
      "after": 6855,
      "ĠÄ": 6856,
      "ĠTal": 6857,
      "ĠLanguage": 6858,
      "ĠStra": 6859,
      "Ġapart": 6860,
      "44": 6861,
      "iang": 6862,
      "Ġskin": 6863,
      "vious": 6864,
      "Ġchair": 6865,
      "ĠKent": 6866,
      "Ġ1932": 6867,
      "ĠFlor": 6868,
      "Ġtwenty": 6869,
      "Ġfunctional": 6870,
      "IN": 6871,
      "Ġ75": 6872,
      "Ġphilosophers": 6873,
      "Ġmil": 6874,
      "uting": 6875,
      "ĠHand": 6876,
      "Ġdefine": 6877,
      "Ġmetals": 6878,
      "Ġdiagn": 6879,
      "mm": 6880,
      "run": 6881,
      "ĠRoss": 6882,
      "ĠNatural": 6883,
      "Ġwrites": 6884,
      "Ġ1935": 6885,
      "Ġlegislation": 6886,
      "Ġpromoted": 6887,
      "Ġinterests": 6888,
      "ĠMexican": 6889,
      "ĠSem": 6890,
      "ĠGames": 6891,
      "Ġconj": 6892,
      "ĠSpirit": 6893,
      "Ġentry": 6894,
      "ĠCommand": 6895,
      "Ġ1922": 6896,
      "Ġactivist": 6897,
      "Ġpainting": 6898,
      "Ġcrim": 6899,
      "ĠTransport": 6900,
      "ĠDetroit": 6901,
      "avery": 6902,
      "Ġrecept": 6903,
      "ĠPy": 6904,
      "Ġplate": 6905,
      "Ġtransferred": 6906,
      "ĠOnline": 6907,
      "Ġrepresenting": 6908,
      "ĠConstantine": 6909,
      "Ġmunicipal": 6910,
      "cribed": 6911,
      "Ġsignals": 6912,
      "Ġforests": 6913,
      "Ġreality": 6914,
      "Ġstre": 6915,
      "ĠWork": 6916,
      "ĠConn": 6917,
      "atters": 6918,
      "Ġlocations": 6919,
      "ĠAth": 6920,
      "Ġnick": 6921,
      "ĠFa": 6922,
      "Ġlowest": 6923,
      "Ġpoetry": 6924,
      "Ġconsumption": 6925,
      "ĠTa": 6926,
      "odia": 6927,
      "63": 6928,
      "ko": 6929,
      "Ġcited": 6930,
      "Ġfounder": 6931,
      "ĠSwiss": 6932,
      "Ġnetworks": 6933,
      "Ġgods": 6934,
      "68": 6935,
      "Ġpolar": 6936,
      "inson": 6937,
      "Ġ1921": 6938,
      "Ġmassive": 6939,
      "Ġrelationships": 6940,
      "ĠWilson": 6941,
      "atabase": 6942,
      "ims": 6943,
      "ĠDra": 6944,
      "Ġorche": 6945,
      "Ġcomedy": 6946,
      "ĠLeon": 6947,
      "ĠAbd": 6948,
      "ĠErn": 6949,
      "62": 6950,
      "Ġsnow": 6951,
      "Ġdeclined": 6952,
      "ĠBibliography": 6953,
      "ĠBan": 6954,
      "ĠLie": 6955,
      "appe": 6956,
      "Ġexpand": 6957,
      "ĠAristot": 6958,
      "ĠPrem": 6959,
      "ĠAlc": 6960,
      "Ġneuro": 6961,
      "Ġagent": 6962,
      "Ġpossibility": 6963,
      "Ġmerch": 6964,
      "Ġdominated": 6965,
      "atra": 6966,
      "ĠLi": 6967,
      "Ġvision": 6968,
      "Ġeval": 6969,
      "Ġdebt": 6970,
      "Ġcriticized": 6971,
      "orus": 6972,
      "ĠAz": 6973,
      "that": 6974,
      "ication": 6975,
      "ĠMir": 6976,
      "Ġitems": 6977,
      "Ġretired": 6978,
      "ymn": 6979,
      "Ġcircuit": 6980,
      "Ġcavalry": 6981,
      "Ġpage": 6982,
      "Ġagents": 6983,
      "Ġorigins": 6984,
      "ĠTerrit": 6985,
      "DA": 6986,
      "Ġille": 6987,
      "ĠHug": 6988,
      "ĠKong": 6989,
      "Ġpredomin": 6990,
      "Ġmechanical": 6991,
      "Ġamounts": 6992,
      "Ġgradually": 6993,
      "Ġliberal": 6994,
      "Ġplanning": 6995,
      "Ġsoil": 6996,
      "ĠAdam": 6997,
      "Ġmusicians": 6998,
      "ĠPruss": 6999,
      "ĠEcuador": 7000,
      "arat": 7001,
      "arus": 7002,
      "Ġmac": 7003,
      "lete": 7004,
      "ĠDa": 7005,
      "Ġdrawn": 7006,
      "Ġabandoned": 7007,
      "Ġdie": 7008,
      "ĠBrun": 7009,
      "Ġestablishment": 7010,
      "Ġbalance": 7011,
      "Ġcriminal": 7012,
      "Eng": 7013,
      "Ġpark": 7014,
      "Ġunus": 7015,
      "ĠVan": 7016,
      "Ġcharged": 7017,
      "Ġhistoric": 7018,
      "Ġdocumentary": 7019,
      "Ġphrase": 7020,
      "auc": 7021,
      "faces": 7022,
      "Ġtal": 7023,
      "Ġnut": 7024,
      "Ġphosph": 7025,
      "Ġexplo": 7026,
      "idden": 7027,
      "Ġfavour": 7028,
      "ĠConstantinople": 7029,
      "Ġcrown": 7030,
      "Ġbishops": 7031,
      "Ġ1910": 7032,
      "Ġ37": 7033,
      "Ġserves": 7034,
      "ĠExt": 7035,
      "Ġsolar": 7036,
      "Ġidentify": 7037,
      "ĠEss": 7038,
      "onso": 7039,
      "ila": 7040,
      "ĠBon": 7041,
      "ĠIS": 7042,
      "ĠGram": 7043,
      "ĠHome": 7044,
      "obi": 7045,
      "onds": 7046,
      "Ġweather": 7047,
      "ĠWhit": 7048,
      "Ġdemocracy": 7049,
      "Ġwing": 7050,
      "ĠDC": 7051,
      "opes": 7052,
      "ighth": 7053,
      "Ġdoing": 7054,
      "ĠHarvard": 7055,
      "Ġstatistics": 7056,
      "rors": 7057,
      "Ġtons": 7058,
      "Ġstreet": 7059,
      "Ġexplain": 7060,
      "ĠSteve": 7061,
      "Ġgoddess": 7062,
      "ylvania": 7063,
      "atern": 7064,
      "ĠAlan": 7065,
      "Ġdirectors": 7066,
      "Ġcredited": 7067,
      "asure": 7068,
      "Ġlies": 7069,
      "uties": 7070,
      "Ġconfig": 7071,
      "59": 7072,
      "Ġnoun": 7073,
      "ĠBak": 7074,
      "ĠThen": 7075,
      "ĠNever": 7076,
      "Ġdenomin": 7077,
      "ĠAdditionally": 7078,
      "||": 7079,
      "ĠFame": 7080,
      "Ġ1916": 7081,
      "riers": 7082,
      "Ġ1925": 7083,
      "Ġmembership": 7084,
      "Ġvariables": 7085,
      "Ġconservative": 7086,
      "ether": 7087,
      "Ġconsec": 7088,
      "ĠAlb": 7089,
      "Ġaxi": 7090,
      "Ġwaves": 7091,
      "rating": 7092,
      "illy": 7093,
      "Ġcolony": 7094,
      "Ġsolutions": 7095,
      "BI": 7096,
      "Ġtact": 7097,
      "Ġhal": 7098,
      "iversary": 7099,
      "ĠRomans": 7100,
      "wright": 7101,
      "ĠNight": 7102,
      "Ġattached": 7103,
      "Ġconcerned": 7104,
      "Ġdiseases": 7105,
      "ĠDefense": 7106,
      "ativity": 7107,
      "ĠMach": 7108,
      "ĠLow": 7109,
      "Ġtrig": 7110,
      "Ġensure": 7111,
      "ĠTelevision": 7112,
      "Ġmand": 7113,
      "ĠPu": 7114,
      "Ġdepends": 7115,
      "Ġ1927": 7116,
      "Ġbottom": 7117,
      "61": 7118,
      "Ġpitch": 7119,
      "Ġmental": 7120,
      "Ġdraft": 7121,
      "ĠAS": 7122,
      "ĠDead": 7123,
      "Ġsubjects": 7124,
      "Ġhosted": 7125,
      "Ġegg": 7126,
      "ovak": 7127,
      "Ġorganic": 7128,
      "ĠPortugal": 7129,
      "Ġbright": 7130,
      "stances": 7131,
      "ĠMes": 7132,
      "ulating": 7133,
      "Ġaccel": 7134,
      "Ġrenamed": 7135,
      "ĠContin": 7136,
      "ĠKhan": 7137,
      "ĠExamples": 7138,
      "Ġcontroversy": 7139,
      "adelph": 7140,
      "Ġopinion": 7141,
      "cule": 7142,
      "vements": 7143,
      "Ġbands": 7144,
      "iveness": 7145,
      "Ġdropped": 7146,
      "rium": 7147,
      "ante": 7148,
      "Ġsuccessor": 7149,
      "Ġeducational": 7150,
      "Ġquestions": 7151,
      "agram": 7152,
      "Ġseasons": 7153,
      "Ġroots": 7154,
      "Ġindex": 7155,
      "ĠColumbus": 7156,
      "Ġminimum": 7157,
      "Ġgall": 7158,
      "rys": 7159,
      "ĠScient": 7160,
      "ĠBrazilian": 7161,
      "Europe": 7162,
      "chang": 7163,
      "pping": 7164,
      "ĠKen": 7165,
      "Ġsupposed": 7166,
      "insula": 7167,
      "ridges": 7168,
      "Ġ1923": 7169,
      "ĠForest": 7170,
      "des": 7171,
      "dimensional": 7172,
      "trans": 7173,
      "ĠGulf": 7174,
      "Ġ1926": 7175,
      "IT": 7176,
      "ĠHun": 7177,
      "ĠRights": 7178,
      "Ġuns": 7179,
      "ĠThird": 7180,
      "Ġ160": 7181,
      "Ġprobability": 7182,
      "ĠCeltic": 7183,
      "rogen": 7184,
      "ĠTen": 7185,
      "ĠMr": 7186,
      "ĠMike": 7187,
      "Ġgot": 7188,
      "neg": 7189,
      "Ġcarrier": 7190,
      "ER": 7191,
      "Ġinner": 7192,
      "eller": 7193,
      "soft": 7194,
      "ĠCentre": 7195,
      "Ġmarkets": 7196,
      "Ġprepared": 7197,
      "ĠSunday": 7198,
      "Ġtalk": 7199,
      "Ġcrick": 7200,
      "aka": 7201,
      "Ġlegend": 7202,
      "ĠControl": 7203,
      "69": 7204,
      "Ġcommittee": 7205,
      "elsh": 7206,
      "ĠPalest": 7207,
      "ĠBruce": 7208,
      "Ġ1913": 7209,
      "Ġshar": 7210,
      "lical": 7211,
      "Ġdict": 7212,
      "Ġpriest": 7213,
      "hetic": 7214,
      "esis": 7215,
      "Ġnotion": 7216,
      "contin": 7217,
      "Ġrarely": 7218,
      "Ġbranches": 7219,
      "ivered": 7220,
      "igious": 7221,
      "Ġstages": 7222,
      "ĠOnce": 7223,
      "Ġrenew": 7224,
      "Ġattacked": 7225,
      "Ġwithdraw": 7226,
      "don": 7227,
      "itual": 7228,
      "ĠConference": 7229,
      "Ġreduction": 7230,
      "zen": 7231,
      "una": 7232,
      "Ġorb": 7233,
      "Ġdispl": 7234,
      "athan": 7235,
      "Ġ170": 7236,
      "ynomial": 7237,
      "Ġimplemented": 7238,
      "Ġsons": 7239,
      "Ġsoul": 7240,
      "ĠHit": 7241,
      "Ġscenes": 7242,
      "icide": 7243,
      "Ġ1912": 7244,
      "ĠAtari": 7245,
      "ĠâĨĴ": 7246,
      "Ġsymptoms": 7247,
      "ĠBulgaria": 7248,
      "Ġthrow": 7249,
      "ĠMathem": 7250,
      "ambiguation": 7251,
      "but": 7252,
      "yg": 7253,
      "Ġlunar": 7254,
      "amine": 7255,
      "Ġpartly": 7256,
      "Ġacknow": 7257,
      "Ġheadquarters": 7258,
      "ospel": 7259,
      "ĠĠĠĠĠĠĠĠĠĠĠĠĠĠĠĠ": 7260,
      "Ġsubstance": 7261,
      "Ġinfinite": 7262,
      "western": 7263,
      "ĠTheatre": 7264,
      "oto": 7265,
      "Ġexcess": 7266,
      "Ġtemple": 7267,
      "Ġlayer": 7268,
      "ĠCamer": 7269,
      "42": 7270,
      "ĠMain": 7271,
      "othe": 7272,
      "ultane": 7273,
      "Ġemot": 7274,
      "ĠMarc": 7275,
      "Ġclassic": 7276,
      "Ġtransmission": 7277,
      "ĠHungarian": 7278,
      "CS": 7279,
      "Ġtherapy": 7280,
      "Ġom": 7281,
      "lets": 7282,
      "ĠCirc": 7283,
      "ĠBa": 7284,
      "Ġplot": 7285,
      "ricted": 7286,
      "Ġsubt": 7287,
      "Ġinvented": 7288,
      "ĠAllen": 7289,
      "rehens": 7290,
      "Ġtests": 7291,
      "while": 7292,
      "Ġcandidate": 7293,
      "ĠColombia": 7294,
      "ÅĤ": 7295,
      "ugos": 7296,
      "Ġoccas": 7297,
      "Ġtreaty": 7298,
      "Ġbonds": 7299,
      "ĠCommonwealth": 7300,
      "%)": 7301,
      "Ġwaters": 7302,
      "icular": 7303,
      "ĠMid": 7304,
      "erse": 7305,
      "ĠSciences": 7306,
      "Ġcontroversial": 7307,
      "Ġinteraction": 7308,
      "Ġdecay": 7309,
      "uations": 7310,
      "Ġmode": 7311,
      "Ġslave": 7312,
      "Ġdestruction": 7313,
      "ĠClassical": 7314,
      "2000": 7315,
      "52": 7316,
      "ĠRuth": 7317,
      "ptic": 7318,
      "Ġreputation": 7319,
      "ĠRussell": 7320,
      "82": 7321,
      "iy": 7322,
      "Ġocean": 7323,
      "ĠSanta": 7324,
      "ĠBridge": 7325,
      "Ġpreferred": 7326,
      "Ġgoals": 7327,
      "Ġoccasionally": 7328,
      "itzerland": 7329,
      "Ġstore": 7330,
      "Ġstating": 7331,
      "Ġweb": 7332,
      "Ġmanif": 7333,
      "roscop": 7334,
      "Ġsynthesis": 7335,
      "Ġdating": 7336,
      "ello": 7337,
      "Ġcarb": 7338,
      "Ġincident": 7339,
      "Ġuniversities": 7340,
      "Ġexecuted": 7341,
      "ĠCurrent": 7342,
      "ĠPhilosophy": 7343,
      "graph": 7344,
      "Ġmorph": 7345,
      "ĠHot": 7346,
      "Ġcommitted": 7347,
      "Ġimplementation": 7348,
      "free": 7349,
      "Ġapply": 7350,
      "sche": 7351,
      "bec": 7352,
      "zilla": 7353,
      "ĠDown": 7354,
      "oren": 7355,
      "ometimes": 7356,
      "Ġpromote": 7357,
      "Ġmissions": 7358,
      "Ġrequirements": 7359,
      "pass": 7360,
      "yst": 7361,
      "Ġcoc": 7362,
      "Ġkings": 7363,
      "41": 7364,
      "Cl": 7365,
      "Ġdual": 7366,
      "Ġregime": 7367,
      "Ġoffers": 7368,
      "Ġcolors": 7369,
      "Ġphysician": 7370,
      "ĠDal": 7371,
      "Ġlect": 7372,
      "rises": 7373,
      "Ġsubstantial": 7374,
      "Ġcable": 7375,
      "Ġdistricts": 7376,
      "Ġshortly": 7377,
      "Ġconstitu": 7378,
      "ĠVictoria": 7379,
      "ĠBuddhist": 7380,
      "Ġhypothesis": 7381,
      "Ġfranchise": 7382,
      "asm": 7383,
      "ften": 7384,
      "Ġcolour": 7385,
      "Ġexpensive": 7386,
      "Ġsuccession": 7387,
      "Ġsoldier": 7388,
      "CD": 7389,
      "Ġintern": 7390,
      "Ġfresh": 7391,
      "ĠAj": 7392,
      "Ġstored": 7393,
      "ampion": 7394,
      "Ġaccord": 7395,
      "Ġflood": 7396,
      "Ġdoctor": 7397,
      "Ġchanging": 7398,
      "Ġobtain": 7399,
      "Ġlearned": 7400,
      "ĠAar": 7401,
      "ĠFront": 7402,
      "Ġpropag": 7403,
      "Ġaffairs": 7404,
      "Ġdelivered": 7405,
      "ĠFamily": 7406,
      "Ġhockey": 7407,
      "ĠCab": 7408,
      "ĠIBM": 7409,
      "ĠMarsh": 7410,
      "ruption": 7411,
      "Ġworship": 7412,
      "aeus": 7413,
      "Ġessay": 7414,
      "Ġmissile": 7415,
      "Ġpaintings": 7416,
      "57": 7417,
      "Ġdiox": 7418,
      "ĠCold": 7419,
      "Ġvaries": 7420,
      "ĠAbra": 7421,
      "Ġplanet": 7422,
      "prise": 7423,
      "Ġcompact": 7424,
      "Ġintellectual": 7425,
      "scale": 7426,
      "ĠÃī": 7427,
      "Ġaccompanied": 7428,
      "ker": 7429,
      "amma": 7430,
      "Ġshift": 7431,
      "Ġfoundation": 7432,
      "Ġcomputing": 7433,
      "ĠInstead": 7434,
      "Ġsenior": 7435,
      "utenant": 7436,
      "US": 7437,
      "ĠCr": 7438,
      "ĠBack": 7439,
      "ĠAdv": 7440,
      "Ġpatients": 7441,
      "ĠMedal": 7442,
      "Ġsed": 7443,
      "Ġmal": 7444,
      "ĠLo": 7445,
      "ĠNative": 7446,
      "Ġthemes": 7447,
      "Ġsymmet": 7448,
      "Ġreducing": 7449,
      "43": 7450,
      "inder": 7451,
      "ĠAnne": 7452,
      "Ġcelebrated": 7453,
      "ipel": 7454,
      "Ġsulf": 7455,
      "roph": 7456,
      "Ġmamm": 7457,
      "Ġclin": 7458,
      "Ġformerly": 7459,
      "ĠMembers": 7460,
      "Ġexperimental": 7461,
      "As": 7462,
      "ĠAL": 7463,
      "Ġnavig": 7464,
      "Ġaccused": 7465,
      "Ġassault": 7466,
      "Ġsurvived": 7467,
      "ĠCarolina": 7468,
      "Ġboy": 7469,
      "ĠEli": 7470,
      "Ġpolynomial": 7471,
      "ĠCyprus": 7472,
      "produ": 7473,
      "ĠMult": 7474,
      "AR": 7475,
      "ĠDale": 7476,
      "Ġkil": 7477,
      "Ġthir": 7478,
      "idae": 7479,
      "odyn": 7480,
      "Ġsuperior": 7481,
      "ĠMethod": 7482,
      "umni": 7483,
      "Ġbill": 7484,
      "adow": 7485,
      "Ġvent": 7486,
      "Ġoriginated": 7487,
      "Ġsynd": 7488,
      "ET": 7489,
      "Äĩ": 7490,
      "isers": 7491,
      "ĠGab": 7492,
      "Ġappoint": 7493,
      "ĠDemocr": 7494,
      "ĠTrade": 7495,
      "Ġexactly": 7496,
      "Ġdiplomatic": 7497,
      "Ġvelocity": 7498,
      "97": 7499,
      "sis": 7500,
      "anth": 7501,
      "Ġfan": 7502,
      "ĠEvery": 7503,
      "Ġroads": 7504,
      "Ġremark": 7505,
      "Ġcollected": 7506,
      "Ġmolecular": 7507,
      "Ġreforms": 7508,
      "iffer": 7509,
      "Ġsections": 7510,
      "Ġclar": 7511,
      "ĠAnth": 7512,
      "owned": 7513,
      "former": 7514,
      "eger": 7515,
      "uits": 7516,
      "erated": 7517,
      "ĠTar": 7518,
      "rons": 7519,
      "ĠFilms": 7520,
      "ĠSel": 7521,
      "ĠBav": 7522,
      "Ġvs": 7523,
      "ework": 7524,
      "Ġmanufacturing": 7525,
      "ĠSamuel": 7526,
      "mus": 7527,
      "ĠSax": 7528,
      "ĠGene": 7529,
      "ĠBeck": 7530,
      "Ġholid": 7531,
      "Ġconventional": 7532,
      "rill": 7533,
      "otype": 7534,
      "emble": 7535,
      "acent": 7536,
      "Ġfounding": 7537,
      "Ġdiscover": 7538,
      "Ġpassing": 7539,
      "Ġphilosophical": 7540,
      "Ġmixture": 7541,
      "Ġconstitutional": 7542,
      "ĠGord": 7543,
      "ishment": 7544,
      "Ġdelay": 7545,
      "Ġencounter": 7546,
      "bes": 7547,
      "oys": 7548,
      "Ġcert": 7549,
      "olas": 7550,
      "ĠRena": 7551,
      "Ġgoes": 7552,
      "Ġvariant": 7553,
      "Ġimpossible": 7554,
      "Ġdecisions": 7555,
      "Ġdiverse": 7556,
      "fort": 7557,
      "oma": 7558,
      "ushed": 7559,
      "urance": 7560,
      "ĠHan": 7561,
      "ĠCommunist": 7562,
      "Ġbenefit": 7563,
      "ĠSix": 7564,
      "Ġcomplic": 7565,
      "2005": 7566,
      "Ġalgorithms": 7567,
      "disambiguation": 7568,
      "Ġcinema": 7569,
      "ĠSalvador": 7570,
      "Ġrom": 7571,
      "Ġment": 7572,
      "ĠCry": 7573,
      "ĠLight": 7574,
      "Ġshif": 7575,
      "Ġentitled": 7576,
      "ĠSwitzerland": 7577,
      "Ġsurviving": 7578,
      "77": 7579,
      "ĠGa": 7580,
      "uchy": 7581,
      "Ġradical": 7582,
      "sterdam": 7583,
      "ĠEsper": 7584,
      "Ġweapon": 7585,
      "Ġeye": 7586,
      "itudes": 7587,
      "Ġfly": 7588,
      "roc": 7589,
      "ĠSab": 7590,
      "ĠEll": 7591,
      "ĠWat": 7592,
      "Ġaccident": 7593,
      "Ġassess": 7594,
      "Ġtrav": 7595,
      "Ġidentical": 7596,
      "Ġstanding": 7597,
      "ĠGlobal": 7598,
      "Ġelectricity": 7599,
      "atics": 7600,
      "orous": 7601,
      "alus": 7602,
      "ĠMun": 7603,
      "ĠDyn": 7604,
      "Ġstret": 7605,
      "ĠWelsh": 7606,
      "riarch": 7607,
      "Ġconstell": 7608,
      "Ġconversion": 7609,
      "ĠPenns": 7610,
      "aska": 7611,
      "ĠBush": 7612,
      "ĠGi": 7613,
      "ussels": 7614,
      "ĠShah": 7615,
      "Ġrebell": 7616,
      "low": 7617,
      "real": 7618,
      "iege": 7619,
      "Ġplaywright": 7620,
      "ĠShow": 7621,
      "ĠPrin": 7622,
      "Ġindicates": 7623,
      "53": 7624,
      "Ġsand": 7625,
      "Ġfaster": 7626,
      "Ġgard": 7627,
      "ĠFund": 7628,
      "Ġhence": 7629,
      "Ġtriang": 7630,
      "ĠJacob": 7631,
      "Ġmembrane": 7632,
      "worth": 7633,
      "Ġtask": 7634,
      "Ġthick": 7635,
      "ĠRam": 7636,
      "ova": 7637,
      "Ġsimultane": 7638,
      "Ġdemonstrated": 7639,
      "ystem": 7640,
      "Ġlosing": 7641,
      "Ġspeaking": 7642,
      "Ġassemb": 7643,
      "Ġassembly": 7644,
      "ĠFriedrich": 7645,
      "ĠAzerbaijan": 7646,
      "Ä«": 7647,
      "Ġmales": 7648,
      "ĠNFL": 7649,
      "Ġsuit": 7650,
      "Ġpartial": 7651,
      "ĠWithin": 7652,
      "Ġpercentage": 7653,
      "Ġmountains": 7654,
      "idge": 7655,
      "ĠRem": 7656,
      "Ġvice": 7657,
      "irect": 7658,
      "Ġspons": 7659,
      "Ġvariations": 7660,
      "Ġregularly": 7661,
      "ĠBuilding": 7662,
      "ĠCaes": 7663,
      "Ġca": 7664,
      "Ġinse": 7665,
      "ĠSa": 7666,
      "ĠSign": 7667,
      "ĠFood": 7668,
      "Ġperceived": 7669,
      "Ġflo": 7670,
      "Ġsigns": 7671,
      "Ġdivisions": 7672,
      "ĠBaseball": 7673,
      "furt": 7674,
      "arms": 7675,
      "Ġyellow": 7676,
      "Ġresolution": 7677,
      "Ġworth": 7678,
      "text": 7679,
      "Ġupd": 7680,
      "Ġcalendar": 7681,
      "ĠMichigan": 7682,
      "Ġtransportation": 7683,
      "Ã«": 7684,
      "Ġprices": 7685,
      "ĠCart": 7686,
      "Ġstopp": 7687,
      "Ġcurrency": 7688,
      "ĠNASA": 7689,
      "mes": 7690,
      "Ġverb": 7691,
      "Ġconsisted": 7692,
      "Ġhorizon": 7693,
      "Ġspectrum": 7694,
      "hist": 7695,
      "Ġtank": 7696,
      "Ġtheor": 7697,
      "emale": 7698,
      "Ġinfrastructure": 7699,
      "ĠDavis": 7700,
      "Ġiniti": 7701,
      "It": 7702,
      "ĠAqu": 7703,
      "ĠHu": 7704,
      "Ġartificial": 7705,
      "ĠAbout": 7706,
      "Ġhistorically": 7707,
      "ĠSupp": 7708,
      "Ġappropriate": 7709,
      "58": 7710,
      "Ġri": 7711,
      "rection": 7712,
      "Ġpseud": 7713,
      "ĠHans": 7714,
      "Ġvocal": 7715,
      "Ġheard": 7716,
      "ĠChristopher": 7717,
      "Ġsolo": 7718,
      "ĠFurthermore": 7719,
      "ĠBuff": 7720,
      "Ġcoup": 7721,
      "Ġdetailed": 7722,
      "Ġprisoners": 7723,
      "ĠClinton": 7724,
      "PL": 7725,
      "SR": 7726,
      "ĠÏ": 7727,
      "Ġfalse": 7728,
      "Ġchose": 7729,
      "othing": 7730,
      "ĠWhat": 7731,
      "2007": 7732,
      "Ġwinners": 7733,
      "PC": 7734,
      "eding": 7735,
      "Ġasc": 7736,
      "ĠJoe": 7737,
      "Ġresemb": 7738,
      "ĠGreenland": 7739,
      "ĠPennsylvania": 7740,
      "eing": 7741,
      "Ġfestival": 7742,
      "Ġclock": 7743,
      "Ġinstruction": 7744,
      "Ġmatrix": 7745,
      "Ġabsence": 7746,
      "Ġminority": 7747,
      "Ġpul": 7748,
      "ĠAgency": 7749,
      "ctive": 7750,
      "Ġ(,": 7751,
      "Ġ400": 7752,
      "Ġsteps": 7753,
      "ĠKorea": 7754,
      "lades": 7755,
      "ethe": 7756,
      "Ġvariation": 7757,
      "ĠReview": 7758,
      "Ġaccompl": 7759,
      "Ġeyes": 7760,
      "European": 7761,
      "oons": 7762,
      "Ġperforming": 7763,
      "AD": 7764,
      "Ġretained": 7765,
      "who": 7766,
      "ĠBernard": 7767,
      "icas": 7768,
      "Ġpages": 7769,
      "Ġhospital": 7770,
      "oust": 7771,
      "ĠMarg": 7772,
      "Ġskills": 7773,
      "ĠBelgian": 7774,
      "ĠâĪĴ": 7775,
      "Ġhorse": 7776,
      "Ġrugby": 7777,
      "Ġdepicted": 7778,
      "inner": 7779,
      "ĠPrincip": 7780,
      "iliar": 7781,
      "Ġphysicist": 7782,
      "Ġentertainment": 7783,
      "ĠOhio": 7784,
      "ums": 7785,
      "ĠJos": 7786,
      "ĠFranco": 7787,
      "ĠCrown": 7788,
      "Ġtall": 7789,
      "ĠBrian": 7790,
      "ĠHem": 7791,
      "Ġritual": 7792,
      "ĠProp": 7793,
      "Ġcredit": 7794,
      "ĠMiller": 7795,
      "ĠSimilarly": 7796,
      "group": 7797,
      "wall": 7798,
      "Ġfeet": 7799,
      "Ġsugar": 7800,
      "Ġcarrying": 7801,
      "eenth": 7802,
      "Ġhall": 7803,
      "ĠNaval": 7804,
      "Ġrig": 7805,
      "engers": 7806,
      "Ġpassage": 7807,
      "2008": 7808,
      "Ġprinted": 7809,
      "anas": 7810,
      "ilbert": 7811,
      "ĠLim": 7812,
      "overty": 7813,
      "velt": 7814,
      "Ġgenes": 7815,
      "Ġ1908": 7816,
      "ĠRon": 7817,
      "ĠAmsterdam": 7818,
      "Ġpurchased": 7819,
      "Ġneutral": 7820,
      "angelical": 7821,
      "ĠFlorida": 7822,
      "Ġwine": 7823,
      "rose": 7824,
      "abled": 7825,
      "Ġchampionship": 7826,
      "ĠBeg": 7827,
      "Ġmechanics": 7828,
      "oids": 7829,
      "Ġinhib": 7830,
      "Ġnort": 7831,
      "Ġcurve": 7832,
      "Ġdivine": 7833,
      "Ġswitch": 7834,
      "Ġtwelve": 7835,
      "Ġcodes": 7836,
      "Ġalbums": 7837,
      "Ġindicated": 7838,
      "Ġnucleus": 7839,
      "Ġcontributions": 7840,
      "bishop": 7841,
      "vi": 7842,
      "Ġpig": 7843,
      "star": 7844,
      "ĠInformation": 7845,
      "Ġplus": 7846,
      "EE": 7847,
      "VD": 7848,
      "iders": 7849,
      "raine": 7850,
      "Ġcharges": 7851,
      "ĠAristotle": 7852,
      "ĠAle": 7853,
      "ĠMaced": 7854,
      "Ġ1915": 7855,
      "roll": 7856,
      "Ġappeal": 7857,
      "Ġprotected": 7858,
      "Ġresponsibility": 7859,
      "ĠRoger": 7860,
      "hythm": 7861,
      "ailed": 7862,
      "2006": 7863,
      "Ġlimits": 7864,
      "ĠBabyl": 7865,
      "omical": 7866,
      "idency": 7867,
      "ĠGri": 7868,
      "ĠDeb": 7869,
      "Ġoperates": 7870,
      "Ġencod": 7871,
      "Ġawards": 7872,
      "Ġinterior": 7873,
      "Ġintermedi": 7874,
      "aza": 7875,
      "Ġdecor": 7876,
      "Ġlabour": 7877,
      "Ġcoalition": 7878,
      "ĠCPU": 7879,
      "ĠDouglas": 7880,
      "Ġframe": 7881,
      "Ġ1911": 7882,
      "Ġpenal": 7883,
      "ĠAuthor": 7884,
      "Ġdrawing": 7885,
      "Ġhundreds": 7886,
      "ĠAberde": 7887,
      "300": 7888,
      "alysis": 7889,
      "Ġreaching": 7890,
      "elly": 7891,
      "ĠPerson": 7892,
      "ĠOt": 7893,
      "Ġsurren": 7894,
      "Ġslavery": 7895,
      "ĠGodzilla": 7896,
      "Ġdioxide": 7897,
      "Ġfine": 7898,
      "ĠMaur": 7899,
      "Ġconcrete": 7900,
      "ĠLind": 7901,
      "Ġpref": 7902,
      "ĠAdvent": 7903,
      "sm": 7904,
      "Ġmatters": 7905,
      "ĠTay": 7906,
      "ĠRos": 7907,
      "iful": 7908,
      "Ġvotes": 7909,
      "ensed": 7910,
      "Ġreceiving": 7911,
      "Ġdiscussed": 7912,
      "Ġproportion": 7913,
      "Ġinterpreted": 7914,
      "Ġrear": 7915,
      "adi": 7916,
      "wegian": 7917,
      "eping": 7918,
      "ĠNewton": 7919,
      "Ġcalling": 7920,
      "Ġprofessor": 7921,
      "Ġjudge": 7922,
      "Ġuncertain": 7923,
      "Ġopportunity": 7924,
      "Ġfaced": 7925,
      "ulty": 7926,
      "Ġpartially": 7927,
      "Ġoblig": 7928,
      "Ġstrike": 7929,
      "ĠBand": 7930,
      "acles": 7931,
      "Ġlongest": 7932,
      "Ġannoun": 7933,
      "ĠRoose": 7934,
      "ĠGibral": 7935,
      "Ġske": 7936,
      "ĠLog": 7937,
      "ĠAlaska": 7938,
      "Ġexpert": 7939,
      "ĠAssy": 7940,
      "Ġintegrated": 7941,
      "Ġimmediate": 7942,
      "ĠAbraham": 7943,
      "oen": 7944,
      "Ġfert": 7945,
      "ĠSant": 7946,
      "Ġthing": 7947,
      "Ġnom": 7948,
      "ĠFil": 7949,
      "Ġconson": 7950,
      "Ġedited": 7951,
      "Ġstructural": 7952,
      "ĠBrig": 7953,
      "Ġfluid": 7954,
      "ĠBanglades": 7955,
      "ML": 7956,
      "Ġwitness": 7957,
      "asters": 7958,
      "Ġinteger": 7959,
      "orship": 7960,
      "Ġcomposers": 7961,
      "Ġcrypt": 7962,
      "ĠBulg": 7963,
      "Ġalgebraic": 7964,
      "98": 7965,
      "cape": 7966,
      "reement": 7967,
      "asks": 7968,
      "ĠFall": 7969,
      "ĠWorks": 7970,
      "Ġsounds": 7971,
      "ĠKarl": 7972,
      "Ġsatellite": 7973,
      "92": 7974,
      "Ġbases": 7975,
      "atorial": 7976,
      "Ġhyper": 7977,
      "ĠBosnia": 7978,
      "ĠHitler": 7979,
      "erg": 7980,
      "olve": 7981,
      "ĠDec": 7982,
      "ĠPrim": 7983,
      "ĠRoosevelt": 7984,
      "ĠTru": 7985,
      "Ġbeat": 7986,
      "iesel": 7987,
      "uble": 7988,
      "ĠGermans": 7989,
      "ĠEarl": 7990,
      "1990": 7991,
      "ĠSquare": 7992,
      "eric": 7993,
      "eters": 7994,
      "ĠMand": 7995,
      "ĠKir": 7996,
      "Ġgrown": 7997,
      "Ġdiscussion": 7998,
      "New": 7999,
      "hand": 8000,
      "Ġped": 8001,
      "Ġpairs": 8002,
      "ĠLate": 8003,
      "opt": 8004,
      "Ġguard": 8005,
      "Ġcouple": 8006,
      "Ġprocedure": 8007,
      "gel": 8008,
      "uv": 8009,
      "Ġpy": 8010,
      "Ġhorn": 8011,
      "ĠEric": 8012,
      "ĠMarine": 8013,
      "Ġstrings": 8014,
      "Ġexperiences": 8015,
      "Ġ1890": 8016,
      "Ġnarrative": 8017,
      "Ġbenefits": 8018,
      "ĠRenaissance": 8019,
      "gress": 8020,
      "ĠHy": 8021,
      "Ġvul": 8022,
      "iece": 8023,
      "ĠApost": 8024,
      "ĠPremier": 8025,
      "uum": 8026,
      "Ġtor": 8027,
      "onal": 8028,
      "Ġevil": 8029,
      "ĠÃĨ": 8030,
      "Ġhunting": 8031,
      "bat": 8032,
      "ĠLt": 8033,
      "orning": 8034,
      "Ġfacilit": 8035,
      "Ġmissiles": 8036,
      "Ġarrival": 8037,
      "ĠDefence": 8038,
      "Ġdismiss": 8039,
      "eda": 8040,
      "using": 8041,
      "ĠPict": 8042,
      "Ġinfantry": 8043,
      "Ġanything": 8044,
      "Ġrestaur": 8045,
      "ĠMedic": 8046,
      "Ġsubsid": 8047,
      "Ġdistinguished": 8048,
      "ĠKorean": 8049,
      "Ġalumin": 8050,
      "ĠWolf": 8051,
      "ĠMarx": 8052,
      "Ġdepartment": 8053,
      "Ġperformances": 8054,
      "Ġpsychology": 8055,
      "Ġcircumstances": 8056,
      "ĠGibraltar": 8057,
      "ĠWright": 8058,
      "Ġagree": 8059,
      "ĠArn": 8060,
      "Ġtheoretical": 8061,
      "ĠSultan": 8062,
      "avian": 8063,
      "affe": 8064,
      "Ġvoted": 8065,
      "ears": 8066,
      "Ġdepth": 8067,
      "Ġcollapse": 8068,
      "ĠTemple": 8069,
      "ĠKennedy": 8070,
      "ĠHal": 8071,
      "Ġfrequent": 8072,
      "Gen": 8073,
      "Ã¸": 8074,
      "ĠHindu": 8075,
      "agu": 8076,
      "idean": 8077,
      "Ġmanip": 8078,
      "ĠAdrian": 8079,
      "ĠAustin": 8080,
      "Ġconsistent": 8081,
      "Ġquantities": 8082,
      "ĠOlympic": 8083,
      "Ġsecure": 8084,
      "inburgh": 8085,
      "Ġtheolog": 8086,
      "atible": 8087,
      "emen": 8088,
      "Ġcompound": 8089,
      "Ġmetab": 8090,
      "Ġbegun": 8091,
      "Ġdebut": 8092,
      "Ġnecessarily": 8093,
      "Ġordinary": 8094,
      "ĠNevertheless": 8095,
      "%),": 8096,
      "zo": 8097,
      "onomy": 8098,
      "oric": 8099,
      "Ġfantasy": 8100,
      "uled": 8101,
      "Ġwarm": 8102,
      "Ġengaged": 8103,
      "Ġadaptation": 8104,
      "Ġdispute": 8105,
      "aturally": 8106,
      "Ġrepresentative": 8107,
      "Ġfinding": 8108,
      "lan": 8109,
      "making": 8110,
      "etics": 8111,
      "Ġintent": 8112,
      "Ġoffices": 8113,
      "Ġwarfare": 8114,
      "Ġdefinitions": 8115,
      "ĠCra": 8116,
      "ĠEis": 8117,
      "Ġrow": 8118,
      "ĠIsa": 8119,
      "Ġclearly": 8120,
      "gets": 8121,
      "Ġhier": 8122,
      "ĠEinstein": 8123,
      "Ġprompt": 8124,
      "ĠDirector": 8125,
      "Ġeuro": 8126,
      "Ġfellow": 8127,
      "ĠOrigin": 8128,
      "ĠBrand": 8129,
      "ivation": 8130,
      "Ġarguments": 8131,
      "ĠEugene": 8132,
      "ĠABC": 8133,
      "ource": 8134,
      "Ġparad": 8135,
      "Ġphenomenon": 8136,
      "ĠHonor": 8137,
      "ye": 8138,
      "ilib": 8139,
      "ĠHo": 8140,
      "ĠHere": 8141,
      "Ġroutes": 8142,
      "Ġlaure": 8143,
      "ĠEncyclopedia": 8144,
      "Ġsell": 8145,
      "Ġeat": 8146,
      "Ġlaid": 8147,
      "ĠFinal": 8148,
      "tery": 8149,
      "agues": 8150,
      "Ġapproaches": 8151,
      "Ġinfluences": 8152,
      "Ġfunding": 8153,
      "Ġadjust": 8154,
      "owder": 8155,
      "agg": 8156,
      "ĠJersey": 8157,
      "ourney": 8158,
      "Ġapproval": 8159,
      "Ġterror": 8160,
      "ĠBrussels": 8161,
      "edd": 8162,
      "Ġdated": 8163,
      "otal": 8164,
      "Ġsomeone": 8165,
      "Ġairport": 8166,
      "Ġrestricted": 8167,
      "ipping": 8168,
      "ĠLabour": 8169,
      "ĠBalk": 8170,
      "ĠMaster": 8171,
      "Ġnotation": 8172,
      "Ġpartner": 8173,
      "piration": 8174,
      "Ġtrying": 8175,
      "Ġloyal": 8176,
      "Ġcommem": 8177,
      "Ġjazz": 8178,
      "Ġinteractions": 8179,
      "ĠEdinburgh": 8180,
      "Ġpicture": 8181,
      "path": 8182,
      "icate": 8183,
      "ĠLast": 8184,
      "ĠNich": 8185,
      "Ġvarieties": 8186,
      "Ġbroken": 8187,
      "ĠBrother": 8188,
      "ĠOfficial": 8189,
      "hu": 8190,
      "Ġcoff": 8191,
      "Ġargue": 8192,
      "Ġcloser": 8193,
      "ĠMuslims": 8194,
      "ĠGordon": 8195,
      "ĠBad": 8196,
      "aste": 8197,
      "Ġresist": 8198,
      "Ġreferring": 8199,
      "Ġprogramme": 8200,
      "Ġescape": 8201,
      "ĠBusiness": 8202,
      "ĠTun": 8203,
      "Ġreturning": 8204,
      "ĠHarry": 8205,
      "Ġsacrif": 8206,
      "language": 8207,
      "Ġrevers": 8208,
      "ĠIl": 8209,
      "ĠWild": 8210,
      "Ġunless": 8211,
      "ĠAltern": 8212,
      "Ġ33": 8213,
      "Ġeconomics": 8214,
      "ithmetic": 8215,
      "Ġpreserved": 8216,
      "Ġdependent": 8217,
      "Ġvowel": 8218,
      "mers": 8219,
      "ĠMean": 8220,
      "Ġconsult": 8221,
      "180": 8222,
      "Ġseparation": 8223,
      "ĠSimon": 8224,
      "brev": 8225,
      "ĠLiberal": 8226,
      "ĠOperation": 8227,
      "Ġchapter": 8228,
      "We": 8229,
      "ĠÐ": 8230,
      "Ġbib": 8231,
      "Ġgiant": 8232,
      "ĠChad": 8233,
      "enness": 8234,
      "Ġacknowled": 8235,
      "CP": 8236,
      "brid": 8237,
      "rod": 8238,
      "ĠFord": 8239,
      "Ġoperator": 8240,
      "Ġelectrom": 8241,
      "ĠWho": 8242,
      "ĠPeace": 8243,
      "ĠHungary": 8244,
      "ped": 8245,
      "hered": 8246,
      "umen": 8247,
      "Ġmatches": 8248,
      "coming": 8249,
      "Ġcopper": 8250,
      "Ġneighborhood": 8251,
      "ĠVienna": 8252,
      "inated": 8253,
      "estab": 8254,
      "2011": 8255,
      "Ġeasy": 8256,
      "ĠNorwegian": 8257,
      "ĠRailway": 8258,
      "ĠArgentina": 8259,
      "Ġisolated": 8260,
      "unte": 8261,
      "ĠGran": 8262,
      "Ġracing": 8263,
      "ĠBenj": 8264,
      "ĠBulgarian": 8265,
      "51": 8266,
      "vol": 8267,
      "ĠDark": 8268,
      "ĠStock": 8269,
      "Ġsched": 8270,
      "ommel": 8271,
      "Ġarmies": 8272,
      "Ġevolutionary": 8273,
      "Ġdistinguish": 8274,
      "Ġutil": 8275,
      "ĠGuatemala": 8276,
      "Ġrub": 8277,
      "illes": 8278,
      "Ġabund": 8279,
      "Ġouter": 8280,
      "Ġinterface": 8281,
      "atty": 8282,
      "Ġtrading": 8283,
      "Ġdescribing": 8284,
      "Ġcommunications": 8285,
      "Ġexclusively": 8286,
      "Ãº": 8287,
      "Å«": 8288,
      "Ġlists": 8289,
      "ocene": 8290,
      "Ġunlike": 8291,
      "Ġaccum": 8292,
      "Ġinstructions": 8293,
      "Ġanniversary": 8294,
      "2001": 8295,
      "1980": 8296,
      "Ġcovers": 8297,
      "Ġfilled": 8298,
      "Ġgly": 8299,
      "agle": 8300,
      "Ġrefuge": 8301,
      "ĠSlav": 8302,
      "Ġessentially": 8303,
      "Ġtur": 8304,
      "itter": 8305,
      "Ġfighter": 8306,
      "ourse": 8307,
      "ĠThose": 8308,
      "Ġpassenger": 8309,
      "Ġderivative": 8310,
      "Ġnickn": 8311,
      "ez": 8312,
      "herent": 8313,
      "thetic": 8314,
      "Ġimmigrants": 8315,
      "rep": 8316,
      "Ġsalt": 8317,
      "Ġnone": 8318,
      "Ġvoting": 8319,
      "Ġspin": 8320,
      "hemistry": 8321,
      "2004": 8322,
      "ĠPalace": 8323,
      "Ġestimates": 8324,
      "ĠPublishing": 8325,
      "Ġfilter": 8326,
      "ĠNapoleon": 8327,
      "Ġfran": 8328,
      "Ġflying": 8329,
      "Ġ().": 8330,
      "annels": 8331,
      "ĠAmb": 8332,
      "ĠRepresent": 8333,
      "ĠYears": 8334,
      "Ġfruit": 8335,
      "Ġmart": 8336,
      "ĠCall": 8337,
      "ĠBrad": 8338,
      "iments": 8339,
      "Ġ36": 8340,
      "olds": 8341,
      "lication": 8342,
      "Ġapproxim": 8343,
      "Ġboundary": 8344,
      "onymous": 8345,
      "tain": 8346,
      "ĠHard": 8347,
      "ĠRoll": 8348,
      "Ġconcerning": 8349,
      "Ġchoose": 8350,
      "ĠWindows": 8351,
      "employ": 8352,
      "ĠStation": 8353,
      "Ġmainstream": 8354,
      "Ġfemales": 8355,
      "Ġcovering": 8356,
      "ĠMicrosoft": 8357,
      "ĠEsperanto": 8358,
      "Ġdiver": 8359,
      "Ġblues": 8360,
      "Ġexpedition": 8361,
      "ĠGreeks": 8362,
      "ĠMedia": 8363,
      "Ġastronaut": 8364,
      "Ġrecommended": 8365,
      "rage": 8366,
      "Ġannually": 8367,
      "ĠMountains": 8368,
      "ĠCand": 8369,
      "aked": 8370,
      "2010": 8371,
      "Ġpublicly": 8372,
      "ĠDesign": 8373,
      "ĠPierre": 8374,
      "93": 8375,
      "Ġbron": 8376,
      "Ġhuge": 8377,
      "otton": 8378,
      "ĠRen": 8379,
      "Ġruling": 8380,
      "Ġclean": 8381,
      "Ġoverse": 8382,
      "icts": 8383,
      "eton": 8384,
      "aga": 8385,
      "Ġearned": 8386,
      "Ġspecified": 8387,
      "Ġoperational": 8388,
      "Ġradar": 8389,
      "ĠTyp": 8390,
      "ĠVideo": 8391,
      "Ġempt": 8392,
      "iscop": 8393,
      "Ġ1905": 8394,
      "Ġfemin": 8395,
      "restrial": 8396,
      "Ġconnections": 8397,
      "Ġencouraged": 8398,
      "ecess": 8399,
      "ĠSports": 8400,
      "oli": 8401,
      "eta": 8402,
      "Ġteacher": 8403,
      "Ġvariants": 8404,
      "Ġverte": 8405,
      "Ġrotation": 8406,
      "adelphia": 8407,
      "ĠTuring": 8408,
      "Ġ120": 8409,
      "acle": 8410,
      "ogether": 8411,
      "2015": 8412,
      "Ġvolcan": 8413,
      "Ġcardinal": 8414,
      "ĠElectric": 8415,
      "Ġhousing": 8416,
      "ĠKnight": 8417,
      "ĠHoward": 8418,
      "Ġbriefly": 8419,
      "ĠConfederate": 8420,
      "div": 8421,
      "Ġcul": 8422,
      "ĠCru": 8423,
      "ĠSus": 8424,
      "Ġstability": 8425,
      "ĠRab": 8426,
      "Ġfled": 8427,
      "Ġ1906": 8428,
      "AT": 8429,
      "Ġdatabase": 8430,
      "Ġconference": 8431,
      "Ġvot": 8432,
      "Ġmolecule": 8433,
      "ĠNetwork": 8434,
      "Ġadjacent": 8435,
      "Ġtoxic": 8436,
      "ĠTu": 8437,
      "ĠLady": 8438,
      "Ġdisag": 8439,
      "Ġdoor": 8440,
      "ĠExpl": 8441,
      "Ġdesigner": 8442,
      "Ġowner": 8443,
      "ĠBasque": 8444,
      "ĠGothic": 8445,
      "Ġwire": 8446,
      "ĠKy": 8447,
      "archy": 8448,
      "Ġbiology": 8449,
      "Ġemployees": 8450,
      "Ġexplanation": 8451,
      "ĠEC": 8452,
      "ĠData": 8453,
      "achers": 8454,
      "Ġcommit": 8455,
      "Ġconspir": 8456,
      "Ġintegral": 8457,
      "Ġpronounced": 8458,
      "father": 8459,
      "acts": 8460,
      "Ġcondem": 8461,
      "Ġscientist": 8462,
      "Ġsurvive": 8463,
      "Ġbrothers": 8464,
      "ĠMemorial": 8465,
      "ĠCastle": 8466,
      "ĠArmenian": 8467,
      "jo": 8468,
      "eria": 8469,
      "Ġovers": 8470,
      "ĠHerm": 8471,
      "Ġ34": 8472,
      "Ġassistance": 8473,
      "ĠCommunic": 8474,
      "Ġsupporters": 8475,
      "Ġstatements": 8476,
      "ĠCosta": 8477,
      "Ġsample": 8478,
      "occ": 8479,
      "Ġassign": 8480,
      "Ġexposure": 8481,
      "Ġreflected": 8482,
      "Ġmarine": 8483,
      "Ġsixth": 8484,
      "Ġarranged": 8485,
      "Hz": 8486,
      "cut": 8487,
      "oque": 8488,
      "inals": 8489,
      "edu": 8490,
      "Ġhair": 8491,
      "ruck": 8492,
      "kee": 8493,
      "Ġrose": 8494,
      "Ġdefence": 8495,
      "Ġruler": 8496,
      "Ġappearances": 8497,
      "56": 8498,
      "lock": 8499,
      "rot": 8500,
      "ifican": 8501,
      "ortion": 8502,
      "Ġmeat": 8503,
      "Ġgenus": 8504,
      "2012": 8505,
      "ĠBenjamin": 8506,
      "ificance": 8507,
      "Î¿": 8508,
      "Ġions": 8509,
      "Ġsale": 8510,
      "esian": 8511,
      "Ġdrew": 8512,
      "Ġdrag": 8513,
      "elect": 8514,
      "asi": 8515,
      "Ġmit": 8516,
      "Ġtool": 8517,
      "Ġbeer": 8518,
      "ĠPot": 8519,
      "Ġspot": 8520,
      "Ġboundaries": 8521,
      "Ġvarying": 8522,
      "Ġaccurate": 8523,
      "Ġmomentum": 8524,
      "aug": 8525,
      "perors": 8526,
      "Ġbiggest": 8527,
      "AN": 8528,
      "BT": 8529,
      "uns": 8530,
      "avier": 8531,
      "Ġobservations": 8532,
      "Ġfunds": 8533,
      "ĠCultural": 8534,
      "fe": 8535,
      "Ġid": 8536,
      "Ġtheology": 8537,
      "Ġcrow": 8538,
      "Ġwrong": 8539,
      "Ġmob": 8540,
      "ĠAround": 8541,
      "ĠCode": 8542,
      "ĠFred": 8543,
      "Ġspoke": 8544,
      "tym": 8545,
      "ĠGuide": 8546,
      "ĠBelarus": 8547,
      "ĠAtlanta": 8548,
      "ĠArmenia": 8549,
      "Ġscheme": 8550,
      "Ġrif": 8551,
      "ĠSav": 8552,
      "ivated": 8553,
      "Ġchannels": 8554,
      "Ġdesire": 8555,
      "Ġvolumes": 8556,
      "ĠFlight": 8557,
      "ded": 8558,
      "harm": 8559,
      "Ġbip": 8560,
      "Ġemphasis": 8561,
      "Ġtheatre": 8562,
      "Ġfictional": 8563,
      "Ġpoverty": 8564,
      "ĠPsych": 8565,
      "Ġinstall": 8566,
      "Ġtracks": 8567,
      "Ġprofession": 8568,
      "Ġpurchase": 8569,
      "Ġproposal": 8570,
      "Ġdubbed": 8571,
      "Ġtropical": 8572,
      "ocated": 8573,
      "ubes": 8574,
      "Ġartillery": 8575,
      "ĠClaud": 8576,
      "Ġbrown": 8577,
      "Ġrestored": 8578,
      "ĠBarry": 8579,
      "Ġoccupation": 8580,
      "top": 8581,
      "apor": 8582,
      "aret": 8583,
      "ika": 8584,
      "Ġarrested": 8585,
      "ĠAberdeen": 8586,
      "?\"": 8587,
      "ĠCer": 8588,
      "olics": 8589,
      "ĠMoh": 8590,
      "Ġunsu": 8591,
      "ĠAgricult": 8592,
      "Ġdiameter": 8593,
      "Ġceremony": 8594,
      "German": 8595,
      "feld": 8596,
      "ersion": 8597,
      "ateur": 8598,
      "Ġresident": 8599,
      "Ġdrama": 8600,
      "Å¡": 8601,
      "Ġnaturally": 8602,
      "ĠChrys": 8603,
      "phal": 8604,
      "Ġsubstit": 8605,
      "Ġremove": 8606,
      "Ġreprodu": 8607,
      "Ġpoems": 8608,
      "Ġparent": 8609,
      "Ġhosts": 8610,
      "Ġgrounds": 8611,
      "Ġlosses": 8612,
      "ĠSoft": 8613,
      "Ġtube": 8614,
      "Ġfest": 8615,
      "ĠFederation": 8616,
      "ĠHart": 8617,
      "Ġdisorders": 8618,
      "Ġprefer": 8619,
      "ĠIndones": 8620,
      "ĠCommodore": 8621,
      "Ġportra": 8622,
      "ĠPhiladelphia": 8623,
      "Ġmounted": 8624,
      "Ġmythology": 8625,
      "Ġconquest": 8626,
      "ilibrium": 8627,
      "94": 8628,
      "LU": 8629,
      "itime": 8630,
      "ĠCay": 8631,
      "Ġmoves": 8632,
      "Ġmining": 8633,
      "Ġobservation": 8634,
      "ĠNotable": 8635,
      "Ġvessels": 8636,
      "ĠMess": 8637,
      "abs": 8638,
      "Ġinvolve": 8639,
      "Ġbes": 8640,
      "Ġbone": 8641,
      "Ġbought": 8642,
      "Ġhyd": 8643,
      "Ġflav": 8644,
      "Ġlasted": 8645,
      "Ġmerely": 8646,
      "Ġexecution": 8647,
      "Ġoptim": 8648,
      "Ġreplacement": 8649,
      "Ġtournament": 8650,
      "á¹": 8651,
      "Ġtouch": 8652,
      "merce": 8653,
      "ĠAlger": 8654,
      "Ġlegit": 8655,
      "Ġtechnologies": 8656,
      "2003": 8657,
      "Ġvolt": 8658,
      "ĠRegion": 8659,
      "Ġtourism": 8660,
      "Ġstorm": 8661,
      "osystem": 8662,
      "Ġartistic": 8663,
      "Ġunusual": 8664,
      "RS": 8665,
      "ĠMuch": 8666,
      "Ġdistribut": 8667,
      "Ġdemocratic": 8668,
      "ĠAllied": 8669,
      "Ġcampus": 8670,
      "Ġpredecess": 8671,
      "Ġtone": 8672,
      "ĠCole": 8673,
      "Ġindependently": 8674,
      "ĠIndependence": 8675,
      "ĠMit": 8676,
      "ĠWalk": 8677,
      "Ġplural": 8678,
      "Ġinstalled": 8679,
      "nost": 8680,
      "ĠMars": 8681,
      "ĠFive": 8682,
      "Ġsocieties": 8683,
      "Ġepist": 8684,
      "Ġdangerous": 8685,
      "ĠFIFA": 8686,
      "chen": 8687,
      "gi": 8688,
      "pson": 8689,
      "ĠSher": 8690,
      "aks": 8691,
      "Ġillness": 8692,
      "ĠProvince": 8693,
      "har": 8694,
      "log": 8695,
      "ester": 8696,
      "Ġreally": 8697,
      "ĠRommel": 8698,
      "anga": 8699,
      "Ġmusician": 8700,
      "Ġdriven": 8701,
      "Ġestablishing": 8702,
      "MS": 8703,
      "Ps": 8704,
      "Ġgender": 8705,
      "Ġpregn": 8706,
      "Ġretire": 8707,
      "Ġethics": 8708,
      "Ġdifficulty": 8709,
      "Ġinvestigation": 8710,
      "eman": 8711,
      "Ġstands": 8712,
      "ensis": 8713,
      "ĠFormer": 8714,
      "ĠBarn": 8715,
      "Ġheads": 8716,
      "Ġcoins": 8717,
      "Ġwinner": 8718,
      "ĠSox": 8719,
      "ĠMagn": 8720,
      "Ġdisappe": 8721,
      "okes": 8722,
      "comple": 8723,
      "ÃŃa": 8724,
      "Ġfossil": 8725,
      "ses": 8726,
      "Ġath": 8727,
      "Ġaqu": 8728,
      "Ġmaps": 8729,
      "Ġduties": 8730,
      "Ġhour": 8731,
      "ĠNow": 8732,
      "Ġrout": 8733,
      "Ġpermitted": 8734,
      "Ġadvertising": 8735,
      "96": 8736,
      "itus": 8737,
      "ĠBatt": 8738,
      "reek": 8739,
      "inois": 8740,
      "Ġearthqu": 8741,
      "Ġelsewhere": 8742,
      "onomous": 8743,
      "71": 8744,
      "Ġere": 8745,
      "Ġchess": 8746,
      "Ġing": 8747,
      "Ġexports": 8748,
      "ĠKal": 8749,
      "Ġintention": 8750,
      "Ġsyll": 8751,
      "Ġ1909": 8752,
      "Ġtelephone": 8753,
      "Ġindustries": 8754,
      "Ġ1880": 8755,
      "Ġsequences": 8756,
      "prof": 8757,
      "bing": 8758,
      "Ġsod": 8759,
      "ĠTheory": 8760,
      "Ġalumni": 8761,
      "ĠStadium": 8762,
      "Ġimprison": 8763,
      "Ġcontinental": 8764,
      "Ġshel": 8765,
      "ĠAbu": 8766,
      "Ġsentence": 8767,
      "Ġcoverage": 8768,
      "ĠFull": 8769,
      "Ġchance": 8770,
      "Ġshut": 8771,
      "ĠVill": 8772,
      "ĠReal": 8773,
      "Ġoverl": 8774,
      "ropy": 8775,
      "Ġperspective": 8776,
      "ĠNorway": 8777,
      "Ġgrammar": 8778,
      "cope": 8779,
      "ĠArea": 8780,
      "ective": 8781,
      "ustion": 8782,
      "Ġmeth": 8783,
      "Ġeverything": 8784,
      "Ġeducator": 8785,
      "Ġchromos": 8786,
      "ĠMovement": 8787,
      "Man": 8788,
      "zed": 8789,
      "arant": 8790,
      "ĠAld": 8791,
      "ĠDictionary": 8792,
      "ĠJord": 8793,
      "ĠCla": 8794,
      "DS": 8795,
      "ni": 8796,
      "ĠFM": 8797,
      "Ġhem": 8798,
      "Ġtrains": 8799,
      "Ġ1903": 8800,
      "aism": 8801,
      "Ġanx": 8802,
      "Ġbanned": 8803,
      "olia": 8804,
      "ĠMas": 8805,
      "Ġusual": 8806,
      "ĠKa": 8807,
      "ĠFlore": 8808,
      "Ġswim": 8809,
      "ĠFreedom": 8810,
      "Ġranging": 8811,
      "cult": 8812,
      "ĠRun": 8813,
      "Ġsuitable": 8814,
      "ĠAlpha": 8815,
      "Ġproducers": 8816,
      "Ġdimension": 8817,
      "Ġfit": 8818,
      "ĠGir": 8819,
      "Ġclim": 8820,
      "Ġscored": 8821,
      "Ġneck": 8822,
      "Ġspecialized": 8823,
      "Ġkinds": 8824,
      "ĠUpon": 8825,
      "ĠAnthony": 8826,
      "IP": 8827,
      "din": 8828,
      "inch": 8829,
      "encing": 8830,
      "Ġborders": 8831,
      "emeter": 8832,
      "ĠNik": 8833,
      "Ġcontest": 8834,
      "Ġestate": 8835,
      "Ġeditions": 8836,
      "Ġpassengers": 8837,
      "mund": 8838,
      "style": 8839,
      "urd": 8840,
      "ĠIv": 8841,
      "ĠPa": 8842,
      "Ġvertical": 8843,
      "ĠDirect": 8844,
      "Ġconsciousness": 8845,
      "OC": 8846,
      "pat": 8847,
      "Ġoption": 8848,
      "Ġcomed": 8849,
      "ĠStone": 8850,
      "ĠReport": 8851,
      "ĠAnderson": 8852,
      "Ġintegers": 8853,
      "Ġcommemor": 8854,
      "Ãł": 8855,
      "eded": 8856,
      "Ġfra": 8857,
      "Ġbin": 8858,
      "ĠGary": 8859,
      "Ġmonitor": 8860,
      "Ġlifetime": 8861,
      "ĠEuclidean": 8862,
      "body": 8863,
      "amation": 8864,
      "aments": 8865,
      "Ġ48": 8866,
      "Ġsupports": 8867,
      "Ġopponent": 8868,
      "English": 8869,
      "ĠBishop": 8870,
      "Ġstead": 8871,
      "ĠLib": 8872,
      "ĠNear": 8873,
      "rows": 8874,
      "ĠIsraeli": 8875,
      "Ġgolden": 8876,
      "Ġframework": 8877,
      "yt": 8878,
      "itative": 8879,
      "ĠNiger": 8880,
      "Ġracial": 8881,
      "2018": 8882,
      "atherine": 8883,
      "Ġmonaster": 8884,
      "Ġpossession": 8885,
      "ĠSud": 8886,
      "ĠManu": 8887,
      "Ġdesert": 8888,
      "Ġknew": 8889,
      "Ġ42": 8890,
      "ikh": 8891,
      "Ġopponents": 8892,
      "1999": 8893,
      "Ġwider": 8894,
      "arks": 8895,
      "ĠPap": 8896,
      "Ġinters": 8897,
      "ĠExper": 8898,
      "chester": 8899,
      "ĠMedical": 8900,
      "Ġplanets": 8901,
      "ĠCampbell": 8902,
      "Ġapparently": 8903,
      "ĠBangladesh": 8904,
      "tz": 8905,
      "Ġinflation": 8906,
      "type": 8907,
      "Ġfamiliar": 8908,
      "2009": 8909,
      "Ġquantity": 8910,
      "ĠBaltic": 8911,
      "ĠEthiopia": 8912,
      "ede": 8913,
      "Ġfib": 8914,
      "Ġbits": 8915,
      "ĠBurg": 8916,
      "Ġmovies": 8917,
      "2002": 8918,
      "tario": 8919,
      "Ġefficiency": 8920,
      "Ġportrayed": 8921,
      "sub": 8922,
      "ĠTower": 8923,
      "ayer": 8924,
      "ĠSpring": 8925,
      "Ġrestrictions": 8926,
      "dor": 8927,
      "Ġfraction": 8928,
      "rene": 8929,
      "yll": 8930,
      "Ġ1904": 8931,
      "ĠSummer": 8932,
      "ĠBuffalo": 8933,
      "ĠCow": 8934,
      "Ġrect": 8935,
      "ĠWhe": 8936,
      "auss": 8937,
      "thew": 8938,
      "Ġgluc": 8939,
      "Ġcivilian": 8940,
      "Ġtrust": 8941,
      "Ġmechanisms": 8942,
      "spec": 8943,
      "Ġgraphics": 8944,
      "Ġranges": 8945,
      "Ġtissue": 8946,
      "ĠTaylor": 8947,
      "Ã£": 8948,
      "Ġbears": 8949,
      "ocation": 8950,
      "ĠStory": 8951,
      "ĠAli": 8952,
      "Ġthereby": 8953,
      "ĠBarcel": 8954,
      "ĠAlbania": 8955,
      "Ġstrategic": 8956,
      "Sp": 8957,
      "Ġsend": 8958,
      "ĠRud": 8959,
      "phy": 8960,
      "Ġviolent": 8961,
      "Ġlyrics": 8962,
      "Ġexplicitly": 8963,
      "MT": 8964,
      "box": 8965,
      "heastern": 8966,
      "ĠTony": 8967,
      "ista": 8968,
      "acon": 8969,
      "Ġcontrad": 8970,
      "oyd": 8971,
      "Ġjustice": 8972,
      "ĠAgain": 8973,
      "Ġbusinesses": 8974,
      "Ġestablishments": 8975,
      "Ġcandidates": 8976,
      "Ġbronze": 8977,
      "bus": 8978,
      "iast": 8979,
      "ingly": 8980,
      "oster": 8981,
      "Ġcompens": 8982,
      "Ġarithmetic": 8983,
      "Ġdifferential": 8984,
      "ĠAugustine": 8985,
      "helm": 8986,
      "Ġdisplayed": 8987,
      "Ġthinking": 8988,
      "Se": 8989,
      "gressive": 8990,
      "Ġfired": 8991,
      "Ġbird": 8992,
      "Ġ(;": 8993,
      "Ġexposed": 8994,
      "Ġgenerate": 8995,
      "Ġpatent": 8996,
      "ĠCroatian": 8997,
      "ĠIllinois": 8998,
      "Ġ44": 8999,
      "Ġsky": 9000,
      "ĠAlberta": 9001,
      "bage": 9002,
      "Ġ<": 9003,
      "room": 9004,
      "Ġnan": 9005,
      "ĠPur": 9006,
      "ĠRoy": 9007,
      "Ġscatter": 9008,
      "Ġ38": 9009,
      "Ġownership": 9010,
      "licts": 9011,
      "Ġnoble": 9012,
      "iÄĩ": 9013,
      "Ġdiscrim": 9014,
      "Ġcommissioned": 9015,
      "Ġadults": 9016,
      "ĠStanley": 9017,
      "Ġsamples": 9018,
      "Ġfur": 9019,
      "Ġhole": 9020,
      "olid": 9021,
      "ĠId": 9022,
      "Ġprove": 9023,
      "Ġorth": 9024,
      "Ġrecre": 9025,
      "Ġrelief": 9026,
      "Ġ1907": 9027,
      "Ġfewer": 9028,
      "Ġinitiated": 9029,
      "ĠRegional": 9030,
      "world": 9031,
      "Ġsight": 9032,
      "osexual": 9033,
      "Ġoffensive": 9034,
      "Ġdepression": 9035,
      "Ġcamps": 9036,
      "Ġpiano": 9037,
      "Ġbehaviour": 9038,
      "Ġpenalty": 9039,
      "CO": 9040,
      "izz": 9041,
      "ĠAlab": 9042,
      "ixes": 9043,
      "ĠShaw": 9044,
      "Ġtempor": 9045,
      "Ġelabor": 9046,
      "Ġceremon": 9047,
      "Ġcrops": 9048,
      "NT": 9049,
      "Ġber": 9050,
      "ĠTy": 9051,
      "omic": 9052,
      "ĠCle": 9053,
      "ĠDart": 9054,
      "ĠNum": 9055,
      "Ġarray": 9056,
      "phony": 9057,
      "ĠAnat": 9058,
      "ateral": 9059,
      "Ġattracted": 9060,
      "Ġcontinent": 9061,
      "Ġowners": 9062,
      "forced": 9063,
      "Ġoccurring": 9064,
      "Ġtaxes": 9065,
      "Ġremainder": 9066,
      "Ġlooking": 9067,
      "Ġsubstances": 9068,
      "Ġpremi": 9069,
      "Ġextinct": 9070,
      "itals": 9071,
      "olly": 9072,
      "rip": 9073,
      "Ġsignificance": 9074,
      "ĠExec": 9075,
      "1997": 9076,
      "Ġanimated": 9077,
      "ĠâĤ": 9078,
      "78": 9079,
      "iest": 9080,
      "esh": 9081,
      "adian": 9082,
      "Ġrising": 9083,
      "tenance": 9084,
      "ĠBaron": 9085,
      "Ġabstract": 9086,
      "ĠFlorence": 9087,
      "NP": 9088,
      "chers": 9089,
      "sim": 9090,
      "Ġreverse": 9091,
      "ĠDJ": 9092,
      "Ġexceed": 9093,
      "ĠHead": 9094,
      "Ġsupplies": 9095,
      "Ġpainted": 9096,
      "ĠArchae": 9097,
      "Ġconcentrated": 9098,
      "Ġdecrease": 9099,
      "Ġcognitive": 9100,
      "ationally": 9101,
      "ĠMong": 9102,
      "ĠFact": 9103,
      "Ġrevival": 9104,
      "Ġprotest": 9105,
      "Ġmanufacturers": 9106,
      "fish": 9107,
      "ĠTig": 9108,
      "Ġagency": 9109,
      "Ã©s": 9110,
      "Ġbuy": 9111,
      "ĠHerz": 9112,
      "ĠAnti": 9113,
      "Ġconservation": 9114,
      "ĠWayne": 9115,
      "ĠChildren": 9116,
      "ipe": 9117,
      "Ġfiles": 9118,
      "istent": 9119,
      "Ġconven": 9120,
      "Ġabbrev": 9121,
      "ĠOntario": 9122,
      "auer": 9123,
      "Ġcaptain": 9124,
      "Ġreviews": 9125,
      "Ġphenomena": 9126,
      ".),": 9127,
      "ĠFell": 9128,
      "Ġloop": 9129,
      "otsw": 9130,
      "Ġdeliber": 9131,
      "Ġpredict": 9132,
      "ĠJudaism": 9133,
      "Ġillegal": 9134,
      "72": 9135,
      "Ġcongreg": 9136,
      "orted": 9137,
      "erald": 9138,
      "Ġtrained": 9139,
      "Ġmainland": 9140,
      "ĠCanal": 9141,
      "Ġthermal": 9142,
      "uz": 9143,
      "ĠPent": 9144,
      "ĠDur": 9145,
      "Ġdeleg": 9146,
      "Ġresc": 9147,
      "Ġamino": 9148,
      "Ġanimation": 9149,
      "Ġlogo": 9150,
      "ĠDenver": 9151,
      "Ġlicense": 9152,
      "Ġru": 9153,
      "ĠAugustus": 9154,
      "ĠLaure": 9155,
      "Ġneighbour": 9156,
      "Ġconsequence": 9157,
      "ĠBuddhism": 9158,
      "Ġbinding": 9159,
      "iology": 9160,
      "Ġbed": 9161,
      "ĠTai": 9162,
      "etition": 9163,
      "ĠLin": 9164,
      "Ġestimate": 9165,
      "Ġequilibrium": 9166,
      "Ġcontinuing": 9167,
      "govern": 9168,
      "Ġcel": 9169,
      "itism": 9170,
      "ĠTrum": 9171,
      "ĠCRT": 9172,
      "Ġlot": 9173,
      "Ġongoing": 9174,
      "ĠNature": 9175,
      "ĠJane": 9176,
      "ogle": 9177,
      "Ġchampion": 9178,
      "ĠArmed": 9179,
      "1998": 9180,
      "ĠAmazon": 9181,
      "ĠRand": 9182,
      "Ġprey": 9183,
      "Ġsimilarly": 9184,
      "Ġinterested": 9185,
      "Ġrecognised": 9186,
      "Ġgrant": 9187,
      "ĠPrior": 9188,
      "Ġparticipate": 9189,
      "Ġconvert": 9190,
      "ĠMatthew": 9191,
      "Ġchalleng": 9192,
      "Ġstreets": 9193,
      "ilton": 9194,
      "ĠPit": 9195,
      "ĠFal": 9196,
      "ĠFri": 9197,
      "ĠHong": 9198,
      "umed": 9199,
      "aki": 9200,
      "Ġalliance": 9201,
      "Ġdenied": 9202,
      "ĠSmall": 9203,
      "ĠMoore": 9204,
      "case": 9205,
      "ders": 9206,
      "Ġbot": 9207,
      "Ġpapers": 9208,
      "roke": 9209,
      "sea": 9210,
      "Ġborrow": 9211,
      "Ġunsuccess": 9212,
      "He": 9213,
      "cow": 9214,
      "do": 9215,
      "ĠMaxim": 9216,
      "ĠStaff": 9217,
      "issipp": 9218,
      "130": 9219,
      "ĠWallace": 9220,
      "rox": 9221,
      "Ġalign": 9222,
      "ĠComics": 9223,
      "ails": 9224,
      "iko": 9225,
      "Ġvisitors": 9226,
      "Ġmeetings": 9227,
      "Ġsuffering": 9228,
      "Ġoptical": 9229,
      "Ġarrangement": 9230,
      "GM": 9231,
      "Ġ{": 9232,
      "emed": 9233,
      "gery": 9234,
      "Ġmyster": 9235,
      "Ġcompete": 9236,
      "Ġslowly": 9237,
[...]
